unsigned char model[] = {
 0x1c, 0x00, 0x00, 0x00, 0x54, 0x46, 0x4c, 0x33, 0x14, 0x00, 0x20, 0x00,
 0x1c, 0x00, 0x18, 0x00, 0x14, 0x00, 0x10, 0x00, 0x0c, 0x00, 0x00, 0x00,
 0x08, 0x00, 0x04, 0x00, 0x14, 0x00, 0x00, 0x00, 0x1c, 0x00, 0x00, 0x00,
 0x90, 0x00, 0x00, 0x00, 0xe8, 0x00, 0x00, 0x00, 0xec, 0x13, 0x00, 0x00,
 0xfc, 0x13, 0x00, 0x00, 0x80, 0x19, 0x00, 0x00, 0x03, 0x00, 0x00, 0x00,
 0x01, 0x00, 0x00, 0x00, 0x10, 0x00, 0x00, 0x00, 0x00, 0x00, 0x0a, 0x00,
 0x10, 0x00, 0x0c, 0x00, 0x08, 0x00, 0x04, 0x00, 0x0a, 0x00, 0x00, 0x00,
 0x0c, 0x00, 0x00, 0x00, 0x1c, 0x00, 0x00, 0x00, 0x38, 0x00, 0x00, 0x00,
 0x0f, 0x00, 0x00, 0x00, 0x73, 0x65, 0x72, 0x76, 0x69, 0x6e, 0x67, 0x5f,
 0x64, 0x65, 0x66, 0x61, 0x75, 0x6c, 0x74, 0x00, 0x01, 0x00, 0x00, 0x00,
 0x04, 0x00, 0x00, 0x00, 0x98, 0xff, 0xff, 0xff, 0x0a, 0x00, 0x00, 0x00,
 0x04, 0x00, 0x00, 0x00, 0x07, 0x00, 0x00, 0x00, 0x64, 0x65, 0x6e, 0x73,
 0x65, 0x5f, 0x32, 0x00, 0x01, 0x00, 0x00, 0x00, 0x04, 0x00, 0x00, 0x00,
 0xf6, 0xeb, 0xff, 0xff, 0x04, 0x00, 0x00, 0x00, 0x0b, 0x00, 0x00, 0x00,
 0x64, 0x65, 0x6e, 0x73, 0x65, 0x5f, 0x69, 0x6e, 0x70, 0x75, 0x74, 0x00,
 0x02, 0x00, 0x00, 0x00, 0x34, 0x00, 0x00, 0x00, 0x04, 0x00, 0x00, 0x00,
 0xdc, 0xff, 0xff, 0xff, 0x0d, 0x00, 0x00, 0x00, 0x04, 0x00, 0x00, 0x00,
 0x13, 0x00, 0x00, 0x00, 0x43, 0x4f, 0x4e, 0x56, 0x45, 0x52, 0x53, 0x49,
 0x4f, 0x4e, 0x5f, 0x4d, 0x45, 0x54, 0x41, 0x44, 0x41, 0x54, 0x41, 0x00,
 0x08, 0x00, 0x0c, 0x00, 0x08, 0x00, 0x04, 0x00, 0x08, 0x00, 0x00, 0x00,
 0x0c, 0x00, 0x00, 0x00, 0x04, 0x00, 0x00, 0x00, 0x13, 0x00, 0x00, 0x00,
 0x6d, 0x69, 0x6e, 0x5f, 0x72, 0x75, 0x6e, 0x74, 0x69, 0x6d, 0x65, 0x5f,
 0x76, 0x65, 0x72, 0x73, 0x69, 0x6f, 0x6e, 0x00, 0x0e, 0x00, 0x00, 0x00,
 0x00, 0x13, 0x00, 0x00, 0xf8, 0x12, 0x00, 0x00, 0x20, 0x12, 0x00, 0x00,
 0x08, 0x12, 0x00, 0x00, 0xbc, 0x11, 0x00, 0x00, 0xfc, 0x0c, 0x00, 0x00,
 0x34, 0x01, 0x00, 0x00, 0xac, 0x00, 0x00, 0x00, 0xa4, 0x00, 0x00, 0x00,
 0x9c, 0x00, 0x00, 0x00, 0x94, 0x00, 0x00, 0x00, 0x8c, 0x00, 0x00, 0x00,
 0x6c, 0x00, 0x00, 0x00, 0x04, 0x00, 0x00, 0x00, 0xa6, 0xec, 0xff, 0xff,
 0x04, 0x00, 0x00, 0x00, 0x58, 0x00, 0x00, 0x00, 0x0c, 0x00, 0x00, 0x00,
 0x08, 0x00, 0x0e, 0x00, 0x08, 0x00, 0x04, 0x00, 0x08, 0x00, 0x00, 0x00,
 0x10, 0x00, 0x00, 0x00, 0x28, 0x00, 0x00, 0x00, 0x00, 0x00, 0x06, 0x00,
 0x08, 0x00, 0x04, 0x00, 0x06, 0x00, 0x00, 0x00, 0x04, 0x00, 0x00, 0x00,
 0x01, 0x00, 0x00, 0x00, 0xea, 0x03, 0x00, 0x00, 0x00, 0x00, 0x0a, 0x00,
 0x10, 0x00, 0x0c, 0x00, 0x08, 0x00, 0x04, 0x00, 0x0a, 0x00, 0x00, 0x00,
 0x02, 0x00, 0x00, 0x00, 0x02, 0x00, 0x00, 0x00, 0x04, 0x00, 0x00, 0x00,
 0x05, 0x00, 0x00, 0x00, 0x32, 0x2e, 0x39, 0x2e, 0x31, 0x00, 0x00, 0x00,
 0x0a, 0xed, 0xff, 0xff, 0x04, 0x00, 0x00, 0x00, 0x10, 0x00, 0x00, 0x00,
 0x31, 0x2e, 0x35, 0x2e, 0x30, 0x00, 0x00, 0x00, 0x00, 0x00, 0x00, 0x00,
 0x00, 0x00, 0x00, 0x00, 0x50, 0xe8, 0xff, 0xff, 0x54, 0xe8, 0xff, 0xff,
 0x58, 0xe8, 0xff, 0xff, 0x5c, 0xe8, 0xff, 0xff, 0x36, 0xed, 0xff, 0xff,
 0x04, 0x00, 0x00, 0x00, 0x78, 0x00, 0x00, 0x00, 0x44, 0x13, 0x71, 0x3e,
 0x0c, 0x96, 0x01, 0x3f, 0x5e, 0x2e, 0xef, 0xbe, 0x63, 0x9f, 0x9d, 0x3c,
 0x7e, 0x32, 0x2a, 0xbe, 0x5c, 0x2a, 0xdf, 0xbe, 0x08, 0x65, 0xd1, 0x3e,
 0x06, 0x00, 0xad, 0x3e, 0x4d, 0x2d, 0x31, 0xbf, 0x68, 0x24, 0xa7, 0xbd,
 0x46, 0x12, 0xca, 0x3f, 0xe2, 0xa9, 0x55, 0xbe, 0xaa, 0x4c, 0x17, 0x3f,
 0xce, 0xff, 0xf9, 0x3e, 0x5a, 0xcd, 0x05, 0x3f, 0x63, 0x1e, 0xb3, 0x3d,
 0xec, 0x03, 0x3b, 0x3e, 0xba, 0xea, 0x04, 0xbf, 0xcc, 0x62, 0x86, 0x3f,
 0xca, 0x80, 0x83, 0x3e, 0x80, 0xc0, 0xb9, 0xbe, 0x54, 0x8d, 0x96, 0x3e,
 0xc8, 0xd2, 0x4a, 0x3e, 0x22, 0xfe, 0x92, 0x3f, 0x70, 0x84, 0xd6, 0xbd,
 0x69, 0x2f, 0x16, 0xbf, 0x23, 0x31, 0xfe, 0xbe, 0x4e, 0x89, 0xba, 0x3e,
 0xf6, 0xc7, 0xb9, 0xbe, 0x5e, 0x56, 0x0b, 0xbf, 0xba, 0xed, 0xff, 0xff,
 0x04, 0x00, 0x00, 0x00, 0xb8, 0x0b, 0x00, 0x00, 0xf6, 0x3f, 0x1b, 0x3e,
 0x3b, 0x7d, 0xe9, 0x3c, 0x4e, 0x3a, 0x4c, 0x3e, 0x38, 0x8e, 0xc4, 0xbd,
 0x81, 0xc0, 0x30, 0xbe, 0xc0, 0xa7, 0x91, 0xbc, 0x42, 0xea, 0x13, 0x3e,
 0xa0, 0x93, 0x33, 0x3c, 0x3e, 0x2f, 0x9b, 0x3e, 0x09, 0x5f, 0x29, 0x3e,
 0x00, 0x7d, 0xde, 0xbc, 0xd6, 0x2a, 0x05, 0x3e, 0x3d, 0x9b, 0x38, 0xbd,
 0xd9, 0x33, 0xb3, 0xbc, 0x53, 0x5f, 0xa3, 0xbe, 0xac, 0x87, 0x59, 0xbe,
 0x64, 0xcf, 0x9f, 0xbd, 0x15, 0x26, 0x0b, 0x3d, 0xce, 0x94, 0xf2, 0x3d,
 0xdc, 0x72, 0x88, 0x3e, 0x24, 0xe3, 0x87, 0x3e, 0xab, 0x1d, 0xd9, 0xbd,
 0x56, 0xf3, 0xdd, 0xbd, 0xe5, 0xec, 0x99, 0xbe, 0x54, 0xca, 0xa8, 0x3d,
 0xc9, 0x39, 0x79, 0xbe, 0x38, 0x80, 0x1a, 0x3d, 0xc7, 0x8d, 0x96, 0xbe,
 0xa4, 0xb5, 0x52, 0xbe, 0xe2, 0xe3, 0x97, 0x3e, 0x6c, 0x26, 0x58, 0x3e,
 0xb4, 0xb4, 0x85, 0x3e, 0xdc, 0xc9, 0xd2, 0x3d, 0xe0, 0x4a, 0x9d, 0xbc,
 0x90, 0x4c, 0x2c, 0x3e, 0xca, 0x84, 0x90, 0x3e, 0x06, 0x08, 0xce, 0x3d,
 0x11, 0xf0, 0x89, 0xbe, 0x7f, 0x22, 0xd6, 0x3d, 0x43, 0x93, 0xf7, 0xbc,
 0x10, 0x2d, 0x99, 0x3e, 0x3a, 0xe9, 0x96, 0xbe, 0x44, 0xc1, 0xad, 0x3d,
 0x00, 0x8f, 0xc0, 0x3b, 0xf0, 0xfe, 0x29, 0x3e, 0xb4, 0xfd, 0x6f, 0xbd,
 0x74, 0x00, 0xa3, 0xbe, 0xc8, 0x6c, 0xcc, 0xbc, 0x7a, 0x8c, 0x3e, 0xbd,
 0x8d, 0x48, 0x3f, 0x3e, 0xc0, 0xfe, 0xd5, 0x3b, 0x1b, 0x7b, 0x85, 0xbe,
 0x54, 0x0d, 0x79, 0x3e, 0xee, 0xf5, 0x81, 0xbe, 0x36, 0xa3, 0x80, 0x3e,
 0x2a, 0x1a, 0x0a, 0x3e, 0x20, 0x5a, 0x74, 0x3c, 0xe4, 0x40, 0x4e, 0x3e,
 0xa8, 0x8c, 0x34, 0xbe, 0x3e, 0xc9, 0xd0, 0xbd, 0x80, 0x7c, 0x39, 0x3e,
 0xce, 0xc2, 0x07, 0x3e, 0x94, 0x5d, 0x62, 0x3e, 0xec, 0x0f, 0x8f, 0xbe,
 0x90, 0xc7, 0x28, 0xbe, 0xae, 0xdd, 0x8a, 0x3e, 0xc6, 0xb3, 0x99, 0xbe,
 0x10, 0x8f, 0x13, 0xbd, 0xcc, 0x8c, 0xea, 0x3d, 0x34, 0xfc, 0x99, 0xbe,
 0x50, 0x6c, 0x52, 0x3e, 0xaa, 0xad, 0x1a, 0xbe, 0x2a, 0x82, 0xd2, 0xbd,
 0x28, 0x08, 0x04, 0xbe, 0x39, 0x16, 0x86, 0xbe, 0x94, 0x17, 0x5e, 0x3e,
 0x2a, 0x6a, 0x1b, 0x3e, 0xb0, 0x6f, 0xb0, 0x3c, 0x4d, 0xd4, 0x25, 0xbe,
 0x38, 0x5e, 0x94, 0x3e, 0xa6, 0xd2, 0x99, 0xbd, 0xf8, 0x53, 0xed, 0x3d,
 0x38, 0x7d, 0x93, 0x3e, 0xce, 0x4d, 0x0b, 0x3e, 0x80, 0xf3, 0x28, 0x3c,
 0x13, 0x16, 0x67, 0xbe, 0xb7, 0x40, 0x85, 0xbe, 0x00, 0x02, 0x06, 0xba,
 0xbc, 0xd6, 0x9b, 0x3d, 0xa1, 0xa1, 0x07, 0xbe, 0xa0, 0x22, 0xda, 0xbc,
 0xe8, 0x04, 0x64, 0x3e, 0x12, 0x8b, 0x24, 0xbe, 0xe4, 0xea, 0xde, 0xbd,
 0xb8, 0xf7, 0x00, 0xbd, 0x09, 0xa0, 0x1d, 0xbe, 0x80, 0x4c, 0x90, 0x3b,
 0xf4, 0x98, 0x46, 0x3e, 0x9f, 0xbf, 0x81, 0xbe, 0xc0, 0x00, 0x69, 0x3e,
 0x7b, 0xea, 0x2a, 0xbe, 0x9d, 0x37, 0x82, 0xbe, 0x38, 0x96, 0x60, 0x3e,
 0xcc, 0xcc, 0x31, 0xbe, 0x5f, 0x70, 0x6f, 0xbe, 0x07, 0x60, 0x8a, 0xbe,
 0x90, 0x71, 0x96, 0xbe, 0x04, 0xe4, 0xbc, 0xbd, 0x0c, 0xab, 0xfb, 0xbd,
 0x6c, 0xc1, 0x5d, 0x3e, 0x6a, 0xc6, 0x16, 0xbe, 0x25, 0xea, 0x2b, 0xbe,
 0x1c, 0x65, 0x98, 0xbd, 0x78, 0x10, 0x1c, 0x3e, 0xcc, 0xb6, 0x48, 0xbe,
 0x5a, 0xc0, 0x43, 0xbe, 0x88, 0xaf, 0x33, 0xbe, 0x7a, 0x34, 0x43, 0x3e,
 0xba, 0x4f, 0x8a, 0x3e, 0x64, 0xa9, 0x39, 0xbe, 0xd0, 0xbc, 0x39, 0xbe,
 0x30, 0x5f, 0xc1, 0x3c, 0x80, 0xbb, 0x2f, 0x3c, 0x8c, 0x7c, 0x95, 0x3e,
 0x70, 0xc9, 0x03, 0xbe, 0xa2, 0x56, 0x2d, 0x3e, 0x9a, 0x80, 0x84, 0xbe,
 0x84, 0xc8, 0x7d, 0xbe, 0x70, 0x7c, 0xff, 0x3d, 0xd0, 0x4a, 0x05, 0x3e,
 0xd0, 0x64, 0xc7, 0xbc, 0x5c, 0x93, 0x76, 0x3e, 0xfc, 0x7a, 0x48, 0x3e,
 0x10, 0xfb, 0x51, 0x3e, 0x88, 0x20, 0x87, 0xbe, 0xb4, 0x08, 0xc8, 0x3d,
 0x62, 0x40, 0x4a, 0xbe, 0xe2, 0x86, 0x8b, 0xbd, 0x30, 0x65, 0xb0, 0xbc,
 0xa2, 0xce, 0x98, 0x3e, 0xe0, 0xe0, 0x0c, 0x3c, 0xcc, 0x49, 0xdb, 0xbd,
 0xe4, 0xd9, 0x68, 0x3e, 0x97, 0xa4, 0x82, 0xbe, 0xf0, 0x1c, 0x52, 0x3e,
 0x7c, 0x30, 0x23, 0x3e, 0xd0, 0x07, 0xcc, 0x3c, 0x52, 0x83, 0xec, 0xbd,
 0xac, 0x2b, 0x18, 0x3e, 0x48, 0xba, 0x2f, 0xbd, 0xfb, 0xef, 0x0d, 0x3e,
 0x56, 0x65, 0x58, 0xbe, 0xda, 0x3a, 0xbb, 0xbd, 0x0b, 0xec, 0x4b, 0xbe,
 0xa6, 0x45, 0x22, 0x3e, 0x2f, 0x44, 0x24, 0xbe, 0xc1, 0x57, 0xc7, 0x3e,
 0x9c, 0x85, 0x08, 0xbe, 0x06, 0xbd, 0x2d, 0xbe, 0x5f, 0x2f, 0x58, 0xbe,
 0x0a, 0xc0, 0x82, 0x3e, 0x48, 0x8b, 0xea, 0x3d, 0xb8, 0x6e, 0x80, 0xbd,
 0xfe, 0x69, 0xbe, 0x3e, 0x49, 0x9c, 0x94, 0xbf, 0x36, 0xb4, 0xf3, 0xbd,
 0x40, 0x01, 0x1b, 0x3c, 0x9f, 0xbd, 0xc4, 0x3d, 0xbd, 0x34, 0xf1, 0x3e,
 0xe1, 0x16, 0xfe, 0x3e, 0x0e, 0xa4, 0x76, 0xbe, 0x14, 0x8a, 0xd3, 0x3d,
 0x7c, 0xad, 0x44, 0x3e, 0x95, 0xda, 0x4e, 0x3e, 0xbb, 0x6b, 0x86, 0xbe,
 0xc0, 0xe6, 0x2d, 0xbe, 0x57, 0xa6, 0x24, 0xbe, 0x6c, 0x0c, 0x3d, 0x3e,
 0x62, 0xf2, 0xbe, 0xbd, 0x69, 0x39, 0x62, 0xbe, 0x25, 0x0b, 0x8b, 0xbe,
 0x6a, 0x08, 0xdb, 0x3e, 0xb0, 0x5e, 0xff, 0x3c, 0x5c, 0x73, 0x6c, 0x3e,
 0x86, 0x32, 0x0e, 0xbe, 0x82, 0x75, 0x2a, 0xbe, 0x47, 0x59, 0x2e, 0x3e,
 0x42, 0xd3, 0x80, 0xbf, 0x2d, 0xcd, 0xb5, 0xbe, 0xc9, 0xab, 0xd1, 0xbd,
 0x0c, 0x4f, 0x73, 0x3e, 0x5d, 0x74, 0x16, 0x3f, 0x00, 0x3b, 0xf0, 0xbc,
 0x89, 0x95, 0x5c, 0xbe, 0x3a, 0x02, 0xb6, 0xbd, 0x7e, 0xca, 0x82, 0x3e,
 0x19, 0x99, 0xb8, 0xbf, 0x7b, 0xd0, 0xb6, 0x3e, 0xf4, 0xbf, 0xdc, 0xbd,
 0xcf, 0x49, 0x43, 0x3e, 0x99, 0x84, 0x50, 0xbe, 0xd6, 0xfa, 0x32, 0x3e,
 0x30, 0x33, 0x4c, 0x3d, 0xc8, 0x5c, 0x32, 0x3d, 0x4c, 0xdc, 0xb7, 0x3d,
 0x4c, 0xf4, 0x49, 0x3e, 0x38, 0x35, 0x71, 0xbe, 0xb4, 0x45, 0x3f, 0x3e,
 0xe4, 0x42, 0xab, 0x3d, 0xda, 0x4c, 0x2a, 0xbe, 0x4c, 0x60, 0x75, 0xbd,
 0x90, 0x16, 0x99, 0x3c, 0x02, 0x78, 0x52, 0xbe, 0xe6, 0x33, 0x8e, 0x3e,
 0x17, 0x15, 0x9b, 0xbe, 0xd6, 0x32, 0xac, 0xbd, 0x08, 0x51, 0xc9, 0x3d,
 0x8e, 0x70, 0x2d, 0xbe, 0x88, 0x0f, 0x09, 0x3d, 0x0c, 0xc5, 0x95, 0xbe,
 0xb0, 0x79, 0x6e, 0x3e, 0x80, 0x23, 0x3e, 0xbe, 0xb8, 0x9d, 0xd5, 0x3d,
 0xea, 0x95, 0x24, 0xbe, 0xde, 0x65, 0x97, 0xbd, 0x50, 0xe8, 0x22, 0xbd,
 0x00, 0x44, 0x8d, 0xbb, 0xe6, 0x0a, 0x84, 0x3e, 0xda, 0xd4, 0xc5, 0xbd,
 0x70, 0x24, 0x95, 0x3e, 0x2a, 0x3a, 0x22, 0x3e, 0x00, 0x30, 0x43, 0xbc,
 0x04, 0xd6, 0x3e, 0x3e, 0x00, 0x8f, 0x3e, 0xbb, 0x40, 0x11, 0x88, 0x3b,
 0xd4, 0x3c, 0x66, 0x3e, 0xc3, 0xfa, 0x30, 0xbe, 0x8d, 0x1d, 0x2a, 0xbe,
 0xe8, 0x5a, 0x86, 0x3e, 0xf0, 0xd9, 0xfe, 0xbd, 0xd8, 0xda, 0xe6, 0x3d,
 0xdc, 0xf3, 0x75, 0xbe, 0x74, 0x6f, 0xa7, 0x3d, 0xf8, 0x2e, 0x9a, 0x3e,
 0xe0, 0x52, 0x33, 0xbc, 0xc2, 0x73, 0x80, 0x3e, 0x60, 0x34, 0x2b, 0xbc,
 0xb4, 0x33, 0x63, 0x3e, 0xb2, 0x2c, 0x02, 0x3e, 0xb0, 0x92, 0xfa, 0xbc,
 0x1c, 0x40, 0x23, 0x3e, 0xfe, 0x7f, 0x56, 0xbe, 0x88, 0xd6, 0x68, 0xbe,
 0xe4, 0xb1, 0x58, 0x3e, 0x18, 0x98, 0x4e, 0xbd, 0x6e, 0x0f, 0x2d, 0x3e,
 0x4a, 0xe7, 0x28, 0x3e, 0x60, 0x96, 0x51, 0xbc, 0xd0, 0x1f, 0x4a, 0xbe,
 0x86, 0xc5, 0x14, 0xbe, 0xf4, 0x64, 0x6f, 0x3e, 0x70, 0xd4, 0xf1, 0xbd,
 0x82, 0x98, 0xf1, 0xbd, 0x7b, 0x02, 0x65, 0xbe, 0xb0, 0x88, 0xb7, 0x3c,
 0xb8, 0xba, 0x25, 0x3e, 0x34, 0x01, 0x70, 0xbd, 0x40, 0xb4, 0x35, 0xbd,
 0x68, 0xed, 0x58, 0xbe, 0x57, 0x37, 0x86, 0xbe, 0xe0, 0x92, 0x70, 0x3d,
 0x15, 0xe4, 0x23, 0xbe, 0x3a, 0xa0, 0x99, 0x3e, 0x70, 0x46, 0x64, 0x3e,
 0x9c, 0x81, 0xbc, 0xbd, 0x22, 0x78, 0xe0, 0xbd, 0x19, 0x1c, 0x8e, 0xbe,
 0xba, 0x06, 0xda, 0xbd, 0x8a, 0x15, 0x87, 0xbe, 0x9a, 0x2f, 0x91, 0xbe,
 0xf4, 0x8b, 0xa5, 0xbd, 0x9a, 0xfd, 0x53, 0xbe, 0xca, 0x6e, 0x06, 0xbe,
 0x2a, 0xba, 0x81, 0xbe, 0x45, 0x5f, 0x89, 0xbe, 0xe0, 0x4f, 0xef, 0x3d,
 0x57, 0xba, 0x31, 0xbe, 0x10, 0x68, 0x0b, 0xbd, 0x84, 0xc8, 0x5e, 0x3e,
 0x4c, 0x99, 0x3d, 0x3e, 0xa0, 0xaf, 0x4e, 0x3e, 0x00, 0x60, 0x25, 0x3a,
 0xc0, 0x3a, 0x8b, 0x3e, 0x6c, 0xa4, 0x00, 0x3e, 0x60, 0x1d, 0x4d, 0xbd,
 0x98, 0xba, 0xc3, 0x3d, 0x18, 0x42, 0x49, 0x3d, 0xea, 0xe2, 0x80, 0xbe,
 0x5d, 0x2e, 0x83, 0xbe, 0xde, 0xb6, 0x14, 0xbe, 0x10, 0xc9, 0x23, 0xbe,
 0x66, 0x4e, 0x98, 0xbd, 0x10, 0x43, 0x68, 0x3d, 0xac, 0x01, 0x88, 0x3e,
 0x30, 0xc7, 0x0f, 0xbd, 0x48, 0x05, 0x9a, 0xbe, 0xd0, 0xb7, 0x38, 0xbd,
 0xaa, 0xdd, 0x58, 0xbe, 0x9c, 0x90, 0xf6, 0xbd, 0x80, 0x19, 0xfb, 0xbb,
 0x00, 0x96, 0xc7, 0xbc, 0x24, 0xd7, 0x5b, 0x3e, 0x34, 0x4d, 0x76, 0xbd,
 0x41, 0xad, 0x2c, 0xbe, 0x90, 0xa8, 0x71, 0x3e, 0xf7, 0x19, 0x45, 0xbe,
 0xc6, 0x23, 0xcb, 0xbd, 0xb6, 0xb3, 0x66, 0xbe, 0x6c, 0xfd, 0x53, 0x3e,
 0x50, 0x0b, 0x45, 0x3d, 0x9c, 0x21, 0x85, 0x3e, 0x61, 0x83, 0x88, 0xbe,
 0x70, 0xda, 0x08, 0x3d, 0x68, 0x38, 0x3e, 0x3d, 0x38, 0x65, 0x5a, 0xbd,
 0x02, 0x6a, 0x93, 0x3e, 0x9e, 0x6d, 0x80, 0x3e, 0xb8, 0x34, 0x60, 0x3e,
 0xa6, 0x60, 0x0c, 0x3e, 0xa2, 0xb3, 0x92, 0x3e, 0xa0, 0x65, 0x7f, 0x3d,
 0xc7, 0x94, 0x55, 0xbe, 0xe8, 0xf7, 0x39, 0xbe, 0xf2, 0xa0, 0x63, 0xbe,
 0xb4, 0x41, 0x83, 0xbd, 0xcc, 0xeb, 0x69, 0x3e, 0x8c, 0x15, 0x4b, 0x3e,
 0xf3, 0x34, 0x56, 0xbe, 0x40, 0x7d, 0x28, 0x3c, 0x2f, 0x2e, 0x19, 0xbe,
 0x56, 0xbd, 0x0c, 0xbe, 0x98, 0x9b, 0x46, 0x3d, 0x96, 0xa2, 0x88, 0xbd,
 0xd4, 0xeb, 0x7f, 0x3e, 0xec, 0x3a, 0x79, 0x3e, 0x64, 0xe9, 0x33, 0x3e,
 0x71, 0x58, 0x9a, 0xbe, 0x6b, 0x0e, 0x8d, 0xbe, 0x50, 0x0c, 0xc9, 0x3c,
 0x6e, 0x3e, 0x07, 0x3e, 0xc6, 0x91, 0xf9, 0xbd, 0x85, 0x81, 0x24, 0xbe,
 0x00, 0xb7, 0x91, 0x3e, 0x19, 0x6b, 0x77, 0xbe, 0xbc, 0x4c, 0x99, 0xbd,
 0x14, 0x23, 0x88, 0x3e, 0x28, 0x5d, 0x4e, 0x3d, 0xa8, 0xaf, 0x45, 0xbe,
 0xa0, 0x8d, 0x6b, 0x3e, 0x7c, 0x31, 0x9b, 0xbd, 0xb6, 0xed, 0x28, 0xbe,
 0x0e, 0xfb, 0x03, 0x3e, 0xc0, 0xc6, 0x82, 0xbe, 0x78, 0x80, 0x99, 0x3d,
 0x50, 0x23, 0xdb, 0x3c, 0xde, 0xca, 0x85, 0x3e, 0x60, 0x69, 0x26, 0xbd,
 0x0c, 0xea, 0xde, 0x3d, 0xe8, 0xba, 0x4a, 0x3d, 0x80, 0x47, 0xfc, 0xbb,
 0x3e, 0x41, 0x88, 0x3e, 0xd4, 0x75, 0x0d, 0x3e, 0xcc, 0xbc, 0x10, 0xbe,
 0x38, 0xf2, 0xd0, 0xbd, 0x20, 0x2b, 0x78, 0x3e, 0x00, 0xe6, 0x26, 0x3b,
 0x40, 0xf8, 0x20, 0x3d, 0x87, 0x31, 0x31, 0xbe, 0xfc, 0x7c, 0x53, 0x3e,
 0x16, 0x5a, 0x16, 0x3e, 0xc0, 0x6f, 0x5f, 0xbe, 0x3b, 0x14, 0x98, 0xbe,
 0x00, 0x10, 0xab, 0xbd, 0x48, 0x6d, 0xc0, 0x3d, 0x66, 0xb4, 0x64, 0xbe,
 0xb0, 0x2a, 0xc2, 0xbd, 0x40, 0x73, 0x75, 0x3e, 0x60, 0xbb, 0x2e, 0x3d,
 0x0a, 0xaf, 0x3f, 0x3e, 0x00, 0x6f, 0x83, 0x3b, 0x68, 0x0b, 0x7a, 0x3e,
 0x98, 0xbf, 0x0c, 0xbe, 0x72, 0xea, 0x37, 0x3e, 0x28, 0x5e, 0x37, 0xbe,
 0x90, 0x43, 0x77, 0x3e, 0x40, 0xae, 0x9d, 0xbc, 0x56, 0x8d, 0x0f, 0xbe,
 0x14, 0x4a, 0x9e, 0xbd, 0x00, 0x80, 0x79, 0xb9, 0xf0, 0x43, 0x7c, 0x3e,
 0x92, 0xe3, 0x10, 0xbd, 0xd9, 0x33, 0xaa, 0x3e, 0x91, 0x55, 0x34, 0xbe,
 0x84, 0xa3, 0x52, 0xbf, 0x00, 0xb8, 0x76, 0x3e, 0x6c, 0x30, 0xb7, 0x3d,
 0xd0, 0xde, 0x9a, 0x3e, 0xcc, 0x0b, 0x08, 0xbe, 0xd0, 0x3e, 0x58, 0x3e,
 0x96, 0x52, 0x4f, 0xbe, 0x04, 0xec, 0x9a, 0xbe, 0xe8, 0xa1, 0x9b, 0x3d,
 0xdb, 0xed, 0x83, 0x3d, 0xc8, 0xe1, 0x48, 0x3e, 0x5e, 0x0c, 0xbb, 0xbf,
 0xf8, 0xd5, 0x56, 0x3e, 0xb0, 0x29, 0xdd, 0xbd, 0xae, 0x4d, 0x9e, 0xbe,
 0xaf, 0x24, 0x30, 0x3f, 0x02, 0xa5, 0xee, 0x3e, 0x96, 0x21, 0x3c, 0xbe,
 0x3c, 0x06, 0x15, 0x3f, 0xbe, 0xa2, 0xfc, 0x3d, 0xe8, 0xce, 0x74, 0x3e,
 0x80, 0x8c, 0xab, 0xbc, 0x91, 0xfc, 0xbe, 0x3d, 0x71, 0x55, 0x90, 0xbe,
 0xf3, 0x50, 0xd3, 0x3e, 0x06, 0xb2, 0x31, 0xbe, 0xf8, 0x79, 0x50, 0x3e,
 0x3c, 0x68, 0x51, 0x3e, 0xa6, 0xd5, 0x14, 0x3f, 0x3c, 0x95, 0xc8, 0x3d,
 0xf2, 0xcd, 0x8e, 0x3e, 0x00, 0xd0, 0x51, 0x3c, 0x34, 0x6d, 0x2e, 0x3e,
 0xfa, 0x37, 0x19, 0xbe, 0x67, 0xa4, 0x97, 0xbf, 0x45, 0xdf, 0x87, 0xbe,
 0xac, 0x52, 0xd7, 0xbd, 0x20, 0x90, 0x5c, 0xbe, 0xb5, 0x83, 0x33, 0x3f,
 0xfc, 0xd5, 0x13, 0x3e, 0x91, 0x74, 0x59, 0xbe, 0x98, 0x08, 0x3e, 0x3e,
 0xd0, 0xbf, 0xfd, 0xbc, 0x7b, 0xd1, 0xc1, 0xbf, 0xda, 0x8d, 0xac, 0x3e,
 0x51, 0xf9, 0xab, 0xbe, 0x62, 0xdf, 0x9a, 0xbe, 0x80, 0x86, 0x3d, 0xbc,
 0xb0, 0xca, 0xf1, 0x3c, 0x30, 0x49, 0x0e, 0x3d, 0x2c, 0x96, 0x9b, 0x3d,
 0x78, 0xd5, 0x96, 0x3d, 0xca, 0xd5, 0x1c, 0x3e, 0xd4, 0x84, 0x00, 0x3e,
 0x20, 0xab, 0x91, 0xbd, 0x11, 0xa2, 0x02, 0xbe, 0x97, 0x0c, 0x0f, 0xbe,
 0xba, 0x40, 0x89, 0xbd, 0xa0, 0xc3, 0x28, 0xbd, 0x92, 0xb1, 0x8c, 0xbe,
 0x84, 0x8c, 0x57, 0x3e, 0x6d, 0xbc, 0x44, 0xbe, 0x00, 0xf9, 0x85, 0xbe,
 0x38, 0x55, 0x24, 0x3d, 0x10, 0xd7, 0xb3, 0x3d, 0x94, 0x6e, 0xf0, 0xbd,
 0xe8, 0x3d, 0x91, 0x3d, 0x00, 0x11, 0xf0, 0x3b, 0x9c, 0x52, 0xf4, 0x3d,
 0xfe, 0xf3, 0x36, 0xbe, 0xed, 0x70, 0x72, 0xbe, 0x20, 0xe0, 0x25, 0x3d,
 0x9e, 0xbb, 0x98, 0x3e, 0x66, 0x9b, 0x07, 0x3e, 0x8f, 0xe1, 0x10, 0xbe,
 0xfc, 0x1f, 0x0b, 0xbe, 0x7a, 0xdc, 0xab, 0xbd, 0x64, 0x01, 0x53, 0x3e,
 0x2c, 0xf3, 0x4d, 0x3e, 0xd0, 0x25, 0x04, 0x3d, 0xc8, 0x3f, 0x3c, 0x3e,
 0x28, 0xf2, 0x8a, 0xbe, 0xe6, 0xf0, 0x4c, 0xbe, 0xbc, 0x81, 0xde, 0x3d,
 0x05, 0xa8, 0x28, 0xbe, 0x24, 0xf2, 0xcb, 0xbd, 0x02, 0xbd, 0x26, 0x3e,
 0x3a, 0xc4, 0x57, 0xbe, 0x2c, 0x05, 0x96, 0x3d, 0x48, 0xc5, 0x81, 0x3e,
 0x02, 0x6a, 0x32, 0xbe, 0xbc, 0x86, 0xc6, 0x3d, 0x7a, 0xc8, 0x89, 0xbe,
 0x7a, 0xaf, 0x3a, 0x3e, 0x40, 0x0a, 0x96, 0x3e, 0xea, 0xb4, 0x7f, 0xbe,
 0x20, 0xff, 0x51, 0x3c, 0x4d, 0xe7, 0x75, 0xbe, 0x6a, 0x7f, 0x17, 0x3e,
 0x1e, 0xee, 0xd8, 0xbb, 0x98, 0x6d, 0x80, 0x3f, 0xf0, 0x2b, 0xa0, 0x3c,
 0x94, 0x3d, 0x6b, 0x3e, 0x0d, 0xbf, 0x58, 0x3c, 0xa8, 0xff, 0x09, 0x3e,
 0x12, 0xdf, 0x21, 0xbe, 0x0f, 0xeb, 0x03, 0x3f, 0xa0, 0x89, 0x74, 0xbe,
 0x60, 0xff, 0x0a, 0x3d, 0xb7, 0x0f, 0x9d, 0x3e, 0x28, 0xa7, 0xd3, 0xbd,
 0x67, 0xff, 0xea, 0x3f, 0xc8, 0x8f, 0x4e, 0x3e, 0xc6, 0xc2, 0x36, 0xbe,
 0x7b, 0x18, 0x79, 0xbd, 0x25, 0xb5, 0xaf, 0xbe, 0x0f, 0xe1, 0xf0, 0xbe,
 0xa2, 0x72, 0x1b, 0x3e, 0x7a, 0x7f, 0xce, 0xbd, 0xd0, 0x03, 0xcf, 0xbc,
 0x17, 0x2f, 0xc4, 0xbd, 0x08, 0x86, 0x55, 0x3d, 0x7f, 0x93, 0xb6, 0x3c,
 0x98, 0x18, 0x6c, 0x3e, 0x80, 0xb1, 0xec, 0x3b, 0x10, 0x5c, 0x6d, 0xbd,
 0x50, 0x4f, 0x51, 0x3d, 0x2e, 0xf0, 0x90, 0x3e, 0x5f, 0x5b, 0x64, 0xbf,
 0x2c, 0xde, 0xf7, 0xbd, 0x0e, 0x08, 0x25, 0xbe, 0x4e, 0x72, 0x78, 0xbe,
 0xe0, 0x7a, 0xf0, 0x3d, 0xcd, 0x28, 0xbb, 0x3c, 0xae, 0x05, 0x92, 0x3f,
 0x03, 0xd4, 0x04, 0x3f, 0x7b, 0x5a, 0xc6, 0x3e, 0x5c, 0xe4, 0x57, 0xbe,
 0xca, 0x47, 0x24, 0xbf, 0x64, 0xba, 0x3a, 0xbe, 0xb0, 0xe2, 0x91, 0x3c,
 0x47, 0xa6, 0x7d, 0xbe, 0x31, 0x79, 0x93, 0xbe, 0xe3, 0xbd, 0xe7, 0x3f,
 0x12, 0x05, 0x5f, 0xbe, 0xf1, 0xad, 0x1e, 0xbb, 0x31, 0x08, 0x99, 0x3d,
 0x14, 0x9f, 0x3b, 0x3e, 0x84, 0xe1, 0x60, 0x3e, 0x3c, 0x8b, 0x73, 0x3e,
 0xea, 0x90, 0x48, 0x3e, 0x78, 0x74, 0x3a, 0x3d, 0xa8, 0xc8, 0xa3, 0x3d,
 0x59, 0x29, 0x5b, 0xbe, 0x8c, 0xf0, 0xbd, 0x3d, 0x70, 0x84, 0x1e, 0x3e,
 0x8c, 0xa6, 0x86, 0xbe, 0x18, 0x04, 0x4a, 0xbe, 0xc4, 0xb4, 0x90, 0x3d,
 0x84, 0xde, 0xd1, 0xbd, 0x1e, 0x28, 0x8e, 0x3e, 0x4c, 0x49, 0x49, 0xbe,
 0x6b, 0xa2, 0x81, 0xbe, 0x30, 0xe2, 0x4c, 0x3d, 0x54, 0x16, 0x52, 0xbe,
 0xe0, 0x99, 0x83, 0xbc, 0xf2, 0x33, 0x8b, 0x3e, 0x88, 0x38, 0xf5, 0xbd,
 0x09, 0xc2, 0x1e, 0xbe, 0x8e, 0x44, 0x2f, 0xbe, 0xb0, 0x7b, 0xbe, 0xbc,
 0xde, 0x7c, 0x94, 0x3e, 0x83, 0x7d, 0x8c, 0xbe, 0xc4, 0xaf, 0x08, 0x3e,
 0xf0, 0x29, 0x4c, 0xbd, 0x04, 0xc3, 0x79, 0x3e, 0x92, 0x30, 0x0e, 0x3e,
 0xd0, 0xd0, 0x8d, 0x3d, 0xb0, 0x02, 0x82, 0xbd, 0x86, 0x9a, 0x2d, 0xbe,
 0x42, 0x13, 0xee, 0xbd, 0x9e, 0x6d, 0xea, 0xbd, 0x10, 0x2b, 0x81, 0xbc,
 0x83, 0xa0, 0x7e, 0xbe, 0xd4, 0x00, 0xf2, 0x3d, 0x16, 0xde, 0x7b, 0xbe,
 0x4a, 0x06, 0xf0, 0xbd, 0x68, 0x7d, 0x1f, 0xbd, 0x7a, 0xe5, 0x13, 0x3e,
 0x80, 0x88, 0x15, 0xbb, 0x1e, 0xd4, 0x84, 0x3e, 0xa4, 0x77, 0x21, 0xbe,
 0xca, 0x5f, 0xee, 0xbd, 0xf7, 0x43, 0x8d, 0xbe, 0x8e, 0x21, 0x49, 0xbe,
 0xec, 0xbc, 0xf0, 0xbd, 0xc3, 0xbb, 0x61, 0xbe, 0xfb, 0x5c, 0x9a, 0xbe,
 0x20, 0xaf, 0x31, 0xbd, 0x1a, 0x04, 0x16, 0x3e, 0x20, 0xd4, 0xd7, 0x3c,
 0x76, 0xeb, 0x0c, 0x3e, 0xc6, 0x15, 0x93, 0xbe, 0xd2, 0x27, 0x6d, 0xbe,
 0xb2, 0x00, 0x1f, 0x3e, 0x4c, 0x9a, 0x95, 0xbe, 0x8c, 0x62, 0x02, 0x3e,
 0x88, 0xbf, 0xfd, 0x3d, 0x28, 0xa1, 0x07, 0xbe, 0x56, 0x9c, 0x00, 0x3e,
 0xf7, 0x71, 0x59, 0xbe, 0xa2, 0x5e, 0x3c, 0x3e, 0x40, 0x8b, 0xce, 0xbb,
 0xb4, 0xe2, 0xa2, 0x3d, 0x3f, 0x0f, 0x0c, 0xbe, 0x42, 0x56, 0x85, 0x3e,
 0xc2, 0xeb, 0x4a, 0xbe, 0xbe, 0x3d, 0x65, 0xbe, 0x6c, 0x24, 0x38, 0x3e,
 0x80, 0x50, 0x1d, 0x3c, 0xf0, 0x31, 0x9d, 0xbc, 0xbe, 0xa9, 0x89, 0xbe,
 0x30, 0xbd, 0x27, 0xbe, 0x72, 0xa0, 0x87, 0x3e, 0x7a, 0xe0, 0x81, 0xbd,
 0xfc, 0xf4, 0x52, 0x3e, 0x3c, 0x59, 0xc5, 0xbd, 0xce, 0xd5, 0x73, 0xbe,
 0x90, 0xfe, 0x16, 0x3e, 0xfa, 0xf6, 0x69, 0xbe, 0x72, 0xc4, 0x87, 0xbe,
 0xc3, 0xfe, 0x40, 0xbe, 0x62, 0x93, 0xde, 0xbd, 0x00, 0x1c, 0xa3, 0x3b,
 0x30, 0xd9, 0x65, 0xbe, 0x3e, 0xf0, 0x4d, 0xbe, 0x14, 0xa9, 0xa5, 0xbd,
 0xb5, 0x26, 0x28, 0xbe, 0xf7, 0xc0, 0x96, 0xbe, 0x30, 0x2a, 0x8a, 0xbc,
 0xfa, 0xe1, 0xdb, 0xbd, 0x08, 0x10, 0x4c, 0xbd, 0x50, 0x0f, 0x4b, 0x3d,
 0x70, 0xac, 0x31, 0x3e, 0x3c, 0xec, 0xdb, 0xbd, 0x6e, 0x26, 0x8b, 0x3e,
 0xf8, 0x2e, 0xfa, 0xbd, 0xcb, 0x22, 0x8d, 0xbe, 0x26, 0xc9, 0x82, 0x3e,
 0x87, 0xb8, 0x58, 0x3e, 0xa0, 0xe5, 0x4a, 0x3f, 0xb8, 0x8f, 0xc3, 0x3d,
 0x0d, 0x6f, 0x2f, 0xbe, 0x84, 0xb7, 0x54, 0x3e, 0xb2, 0xd7, 0x9a, 0x3e,
 0xb6, 0xdc, 0xe6, 0xbd, 0xae, 0x69, 0x1e, 0x3f, 0x20, 0xd3, 0x93, 0x3c,
 0x62, 0xdf, 0xda, 0xbd, 0x92, 0xb2, 0x99, 0x3e, 0x1c, 0x50, 0x62, 0x3e,
 0x09, 0xec, 0xbe, 0x3f, 0x2c, 0x36, 0xeb, 0x3d, 0x80, 0x0f, 0x77, 0x3c,
 0xc3, 0x31, 0x6b, 0x3e, 0xbd, 0xd9, 0x5d, 0xbf, 0xc4, 0x06, 0x2a, 0xbe,
 0x29, 0xbb, 0x3b, 0xbe, 0x88, 0x51, 0xac, 0xbd, 0x35, 0x07, 0xe5, 0x3c,
 0xaa, 0x4a, 0x72, 0xbe, 0x42, 0x64, 0x35, 0x3e, 0x3e, 0x17, 0x9b, 0xbd,
 0x84, 0x16, 0x1f, 0xbe, 0xe9, 0x85, 0xa3, 0xbe, 0x3c, 0x85, 0x7f, 0x3e,
 0xb6, 0x8d, 0xc4, 0xbd, 0x50, 0x74, 0xdd, 0xbd, 0xe3, 0x74, 0x69, 0xbf,
 0x14, 0x92, 0xe1, 0xbd, 0x60, 0xea, 0xa7, 0x3d, 0x65, 0x6f, 0x4c, 0xbe,
 0x78, 0x8d, 0x4c, 0x3e, 0x2f, 0xa7, 0xb8, 0x3e, 0x36, 0x55, 0xa6, 0x3f,
 0xd1, 0x1f, 0x16, 0x3f, 0x92, 0xa2, 0x91, 0x3e, 0xb8, 0x07, 0x7f, 0x3e,
 0xee, 0x2f, 0x9f, 0xbe, 0x1e, 0x9d, 0x84, 0x3e, 0x30, 0xcf, 0x34, 0xbd,
 0x3f, 0xd4, 0x80, 0xbe, 0xe0, 0x0e, 0x21, 0x3e, 0xc3, 0xab, 0xaf, 0x3f,
 0xef, 0x2e, 0x3a, 0xbe, 0x2b, 0x2e, 0xed, 0x3e, 0x37, 0x0a, 0xab, 0x3e,
 0x30, 0xc7, 0x49, 0x3e, 0xcb, 0xe4, 0x87, 0xbe, 0x9e, 0xd6, 0x92, 0xbe,
 0x9e, 0x1b, 0x34, 0xbe, 0x90, 0xfb, 0x68, 0x3e, 0x4f, 0x03, 0x14, 0xbe,
 0x96, 0xc9, 0x27, 0xbe, 0xbd, 0x51, 0x78, 0xbe, 0x22, 0xd2, 0x98, 0x3e,
 0xf0, 0xad, 0x47, 0xbd, 0xeb, 0x3e, 0x0b, 0xbe, 0xb0, 0x7e, 0x7a, 0x3e,
 0x70, 0xf1, 0xcd, 0x3c, 0x9b, 0xe4, 0x0a, 0xbe, 0x40, 0xc3, 0xf5, 0x3c,
 0x93, 0xde, 0x23, 0xbe, 0xd6, 0x44, 0x16, 0xbe, 0x5c, 0x12, 0x50, 0x3e,
 0x18, 0xa4, 0x37, 0xbe, 0xb0, 0x2f, 0x4d, 0x3e, 0x70, 0xad, 0xb1, 0x3c,
 0x40, 0x5b, 0xb3, 0xbc, 0x88, 0x69, 0xa9, 0x3d, 0xe3, 0xd5, 0x74, 0xbe,
 0x70, 0x34, 0x9e, 0xbd, 0xc1, 0x13, 0x23, 0xbe, 0xa2, 0x0d, 0x80, 0x3e,
 0x68, 0x47, 0x30, 0x3d, 0x54, 0x59, 0x9b, 0x3e, 0xb0, 0xe7, 0x38, 0x3e,
 0x70, 0xa2, 0x45, 0x3e, 0xe0, 0x75, 0x1d, 0x3c, 0x46, 0x0c, 0x69, 0xbe,
 0xac, 0x65, 0x87, 0x3e, 0x78, 0xa7, 0x5c, 0x3d, 0xc0, 0xdf, 0xb7, 0xbb,
 0x60, 0xd9, 0x53, 0xbc, 0x20, 0xd9, 0x8e, 0x3d, 0x10, 0xbe, 0x94, 0xbd,
 0x20, 0x67, 0x3a, 0x3e, 0xc9, 0x83, 0x8e, 0xbe, 0xa8, 0x78, 0x7d, 0x3d,
 0xbf, 0xc5, 0x02, 0xbe, 0xcc, 0x26, 0xd3, 0x3d, 0x10, 0x7a, 0x7c, 0xbe,
 0xa0, 0x7c, 0x5e, 0x3d, 0x72, 0xd2, 0xfd, 0xbd, 0x14, 0x10, 0xb5, 0x3d,
 0xb0, 0x76, 0x1b, 0xbd, 0xdc, 0xef, 0x5c, 0x3e, 0x7e, 0xf9, 0xff, 0xff,
 0x04, 0x00, 0x00, 0x00, 0xb0, 0x04, 0x00, 0x00, 0x26, 0xc6, 0x4f, 0x3e,
 0x8c, 0xe1, 0xc7, 0x3d, 0x14, 0x3a, 0x82, 0xbe, 0xe9, 0x03, 0x1f, 0x3e,
 0x98, 0xfe, 0x9f, 0x3d, 0xdb, 0xc8, 0xcc, 0xbd, 0x74, 0x0b, 0x2d, 0xbd,
 0x01, 0x33, 0xa3, 0x3e, 0x03, 0xd3, 0x5d, 0x3e, 0xd5, 0x20, 0xa1, 0x3e,
 0x5a, 0xd1, 0x8e, 0x3e, 0x1e, 0xd0, 0x44, 0x3e, 0x39, 0x13, 0x29, 0x3e,
 0x28, 0x08, 0x6e, 0xbe, 0x5c, 0x20, 0xc2, 0x3d, 0x55, 0xb5, 0x04, 0x3e,
 0xa7, 0x07, 0x5d, 0x3e, 0x8c, 0x83, 0x68, 0x3c, 0x2f, 0x1c, 0x9a, 0xbe,
 0x30, 0x75, 0x52, 0x3e, 0xb5, 0x08, 0xe5, 0x3e, 0x58, 0xc9, 0x9b, 0x3e,
 0x9b, 0x11, 0x42, 0xbe, 0xcb, 0xa7, 0x6f, 0xbe, 0x1f, 0xbe, 0x85, 0xbe,
 0xc8, 0x55, 0x0e, 0xbd, 0xff, 0x54, 0x81, 0xbe, 0x01, 0xdd, 0x10, 0xbe,
 0x5c, 0xc6, 0x44, 0x3e, 0x76, 0x0d, 0x97, 0x3e, 0x68, 0xdf, 0xea, 0x3d,
 0x9c, 0x5c, 0x06, 0xbe, 0x96, 0x2d, 0xb4, 0xbd, 0x33, 0x8d, 0x37, 0xbe,
 0x24, 0x83, 0xbc, 0x3d, 0x60, 0x73, 0x04, 0x3e, 0x5b, 0xc2, 0xcb, 0xbd,
 0x73, 0xfb, 0x94, 0x3e, 0x10, 0x8a, 0x49, 0xbe, 0xb5, 0xf1, 0x7a, 0xbc,
 0x29, 0x0a, 0xcc, 0x3e, 0x91, 0x01, 0x88, 0x3e, 0xa5, 0x67, 0x87, 0xbe,
 0x41, 0xbf, 0x6f, 0xbe, 0x10, 0x5a, 0xc6, 0xbc, 0x28, 0xc8, 0x92, 0x3e,
 0x98, 0xbd, 0xb2, 0xbd, 0xf4, 0xd3, 0x17, 0x3e, 0x8e, 0xba, 0x0c, 0xbe,
 0x9a, 0xa8, 0x93, 0xbe, 0x1b, 0x38, 0x42, 0xbe, 0x83, 0x78, 0xa6, 0xbe,
 0xca, 0xbb, 0x2a, 0x3e, 0x86, 0xb9, 0x1d, 0xbe, 0x55, 0xdb, 0xec, 0xbd,
 0x12, 0x36, 0xad, 0xbe, 0xed, 0x75, 0x0a, 0x3f, 0xc5, 0x51, 0x30, 0xbd,
 0x62, 0x1b, 0x0b, 0x3e, 0x64, 0xbd, 0x7a, 0x3e, 0xc6, 0x23, 0x9e, 0xbe,
 0x28, 0x47, 0x91, 0xbd, 0x98, 0x84, 0x31, 0x3d, 0x22, 0xfb, 0x9f, 0xbe,
 0xd2, 0x9f, 0x6e, 0xbe, 0x34, 0x42, 0xb7, 0xbd, 0x59, 0x37, 0x3a, 0xbe,
 0x26, 0xc7, 0x93, 0xbe, 0x77, 0x9a, 0x90, 0xbe, 0x2c, 0xf6, 0xb5, 0x3d,
 0xc0, 0x75, 0x7f, 0x3e, 0x48, 0x85, 0x12, 0x3d, 0x95, 0xb6, 0x7f, 0x3e,
 0x80, 0x31, 0xe1, 0x3d, 0x63, 0x9d, 0x21, 0x3f, 0x91, 0xf0, 0xbb, 0x3e,
 0x07, 0x00, 0xa2, 0x3e, 0x0f, 0x49, 0x6e, 0x3e, 0x03, 0xda, 0xb1, 0x3e,
 0xbf, 0x07, 0x5c, 0x3e, 0xf0, 0xf1, 0x21, 0xbe, 0x3d, 0x73, 0x3e, 0xbe,
 0x2a, 0x25, 0xe8, 0x3e, 0xd0, 0x91, 0xac, 0xbd, 0x1b, 0x45, 0xa3, 0xbe,
 0x0e, 0xb8, 0xb5, 0xbe, 0xc1, 0x0a, 0xda, 0x3e, 0x88, 0x78, 0x59, 0x3e,
 0x5c, 0x5a, 0x0c, 0x3a, 0xc4, 0xe5, 0x8b, 0x3e, 0x00, 0xb7, 0xc5, 0xbd,
 0x00, 0xb4, 0x63, 0x3e, 0x65, 0x83, 0xa3, 0xbe, 0xbe, 0xb5, 0xa1, 0x3e,
 0x3e, 0xb9, 0xa9, 0xbd, 0x02, 0xf5, 0xd3, 0xbd, 0xd0, 0x20, 0x5a, 0x3e,
 0x56, 0xc5, 0x5e, 0xbe, 0x6c, 0x35, 0xa3, 0x3d, 0x63, 0x6f, 0xa6, 0xbe,
 0xa0, 0x70, 0x55, 0xbe, 0x00, 0x16, 0x80, 0xba, 0x82, 0xf3, 0x3e, 0x3e,
 0xed, 0xc8, 0x9b, 0xbe, 0x90, 0x3c, 0x08, 0x3f, 0x82, 0xd8, 0x65, 0x3e,
 0xa1, 0xe5, 0xca, 0xbd, 0x1c, 0x32, 0x12, 0x3e, 0xef, 0x71, 0x2e, 0x3e,
 0xe4, 0x1e, 0xa5, 0xbc, 0xde, 0x4e, 0xca, 0xbe, 0xa7, 0xc9, 0x8d, 0x3d,
 0x5b, 0x84, 0x38, 0x3e, 0x33, 0x1b, 0x7d, 0x3d, 0x72, 0xc0, 0xb9, 0x3e,
 0x89, 0xcd, 0xcc, 0x3e, 0xb1, 0xb4, 0xd9, 0xbe, 0xa4, 0x00, 0x97, 0xbe,
 0x96, 0xd8, 0xb0, 0x3e, 0x52, 0x94, 0xff, 0x3b, 0xf8, 0x8e, 0x37, 0x3d,
 0x48, 0xcf, 0xee, 0xbd, 0xe4, 0x32, 0x40, 0x3e, 0x2a, 0xfd, 0x62, 0xbe,
 0x3d, 0x20, 0x89, 0xbe, 0x40, 0x50, 0xf0, 0x3c, 0x77, 0xbb, 0x16, 0x3d,
 0xc5, 0x47, 0x33, 0x3e, 0xe2, 0xdc, 0xf8, 0xbe, 0xbe, 0x65, 0x80, 0x3e,
 0x73, 0x80, 0xcd, 0x3e, 0xc3, 0x3b, 0x98, 0xbb, 0x88, 0xf2, 0xb8, 0x3e,
 0x33, 0xfe, 0x1d, 0xbd, 0x62, 0xae, 0xbf, 0xbd, 0xa3, 0xb0, 0x15, 0xbe,
 0x9e, 0x25, 0x69, 0x3e, 0xdb, 0xc6, 0xb3, 0x3e, 0xc0, 0x69, 0x7e, 0x3e,
 0x80, 0xe4, 0xa6, 0x3d, 0xf6, 0xae, 0xa3, 0xbe, 0x7d, 0xc4, 0xd9, 0x3c,
 0x2c, 0x73, 0x3b, 0xbe, 0xa0, 0xe1, 0x94, 0x3e, 0x80, 0x63, 0x42, 0xbe,
 0xce, 0x52, 0xc2, 0xbd, 0x42, 0x23, 0x99, 0xbe, 0xc4, 0x38, 0xb8, 0x3d,
 0x84, 0x88, 0xf0, 0x3d, 0xbf, 0x6d, 0x95, 0xbe, 0x77, 0xa1, 0xbe, 0x3d,
 0xd2, 0xb3, 0x69, 0x3e, 0x89, 0x36, 0x51, 0xbe, 0xb9, 0x19, 0x9a, 0x3d,
 0xbc, 0x46, 0xa8, 0xbe, 0xce, 0x4e, 0x34, 0x3e, 0xa2, 0x47, 0x15, 0x3e,
 0x32, 0xe2, 0x9d, 0xbe, 0x38, 0xde, 0x30, 0x3e, 0x80, 0xe0, 0x54, 0xbe,
 0x23, 0x0a, 0x5f, 0xbe, 0x60, 0x88, 0xa6, 0x3e, 0x44, 0x97, 0x3a, 0xbc,
 0x4d, 0xf8, 0xc0, 0x3e, 0x14, 0xef, 0xe5, 0xbe, 0x59, 0x1e, 0x9a, 0x3e,
 0x27, 0x12, 0x5e, 0x3e, 0xb0, 0x69, 0x80, 0x3e, 0x04, 0x4c, 0x86, 0xbe,
 0x20, 0xd5, 0x9a, 0x3e, 0x0e, 0x9b, 0x51, 0xbe, 0x88, 0x56, 0x30, 0xbd,
 0x60, 0xd5, 0x3e, 0xbd, 0xe8, 0xe3, 0x0b, 0x3e, 0x7c, 0x8f, 0xdd, 0x3d,
 0x48, 0x8f, 0x47, 0xbd, 0xe4, 0x54, 0xca, 0xbd, 0x08, 0x6f, 0x5a, 0x3d,
 0x65, 0x4a, 0x38, 0xbe, 0x36, 0x39, 0x91, 0xbe, 0xf8, 0x69, 0x71, 0xbe,
 0x57, 0x5c, 0xa6, 0xbe, 0x91, 0x03, 0x11, 0xbe, 0xd8, 0x68, 0x6f, 0x3d,
 0xf8, 0xb0, 0xf2, 0xbd, 0xce, 0x1e, 0x5a, 0xbe, 0x9a, 0xdc, 0x1c, 0x3e,
 0x93, 0x55, 0x36, 0xbe, 0x05, 0xba, 0x1a, 0xbf, 0x26, 0x34, 0x48, 0x3e,
 0xb1, 0x06, 0xae, 0x3e, 0xb5, 0xa9, 0x81, 0x3e, 0x18, 0xd5, 0x6c, 0xbe,
 0xa0, 0x21, 0x46, 0x3c, 0x76, 0x0f, 0xa2, 0xbe, 0xda, 0xb2, 0x5d, 0xbe,
 0xc8, 0x87, 0x77, 0x3d, 0x38, 0xb9, 0x00, 0xbd, 0x00, 0x08, 0x7b, 0x3d,
 0x8a, 0xe5, 0x0e, 0x3e, 0x7c, 0xd6, 0x54, 0x3e, 0x02, 0xfa, 0x19, 0xbe,
 0x65, 0x9d, 0xa1, 0xbe, 0x08, 0x46, 0x4b, 0xbe, 0xfd, 0x14, 0x5c, 0xbe,
 0x80, 0x04, 0xd9, 0x3c, 0xaa, 0x28, 0x04, 0x3e, 0x74, 0x40, 0x9b, 0xbe,
 0x08, 0xd4, 0x9c, 0x3e, 0x43, 0x2c, 0x69, 0xbe, 0x6d, 0x2b, 0x48, 0xbe,
 0x6c, 0x5a, 0x96, 0xbe, 0xc8, 0x19, 0x2c, 0x3d, 0x76, 0xb7, 0x04, 0xbe,
 0xb0, 0x52, 0xdc, 0x3c, 0x21, 0xee, 0x95, 0xbe, 0xed, 0x4b, 0xa2, 0xbd,
 0xc0, 0xcc, 0x3c, 0x3d, 0x27, 0x04, 0x25, 0x3f, 0xa4, 0xcc, 0xba, 0xbd,
 0x60, 0x5d, 0xcd, 0x3d, 0x86, 0xa0, 0xaa, 0xbc, 0xd1, 0x18, 0x95, 0xbe,
 0x48, 0xe8, 0x84, 0xbe, 0x88, 0x8b, 0x13, 0x3f, 0x18, 0x94, 0xe5, 0xbd,
 0x72, 0xb2, 0x53, 0x3e, 0x49, 0x6b, 0xe6, 0x3d, 0x5a, 0x82, 0xa7, 0x3b,
 0x8f, 0xea, 0x36, 0xbd, 0x02, 0xb1, 0x18, 0x3f, 0xc9, 0x84, 0x2c, 0xbe,
 0x0a, 0x31, 0x1c, 0xbe, 0x50, 0x7b, 0x99, 0x3e, 0x29, 0x00, 0x2d, 0x3e,
 0xa7, 0x57, 0x57, 0x3c, 0x56, 0x08, 0x05, 0x3f, 0x90, 0xda, 0x15, 0x3e,
 0x84, 0x59, 0xcb, 0x3d, 0xdf, 0x41, 0x97, 0xbe, 0xc0, 0x66, 0x86, 0xbd,
 0xa0, 0x72, 0x9d, 0x3d, 0x40, 0x7d, 0x4f, 0x3e, 0x7d, 0x98, 0x52, 0xbe,
 0xd0, 0x9b, 0x72, 0xbe, 0x93, 0x31, 0x07, 0xbe, 0x70, 0xa8, 0x8b, 0x3e,
 0xea, 0x3d, 0xcc, 0x3c, 0x4b, 0x7d, 0xf7, 0xbe, 0x21, 0xcb, 0xc8, 0xbd,
 0x2d, 0x71, 0x9c, 0x3e, 0xc2, 0xd3, 0xc8, 0x3d, 0x40, 0x99, 0xd0, 0x3c,
 0x21, 0x31, 0x93, 0xbe, 0x58, 0x33, 0x8f, 0xbd, 0x94, 0x4d, 0x9d, 0x3e,
 0xb2, 0xd6, 0x5f, 0xbe, 0xae, 0x65, 0xa1, 0xbe, 0x94, 0x62, 0xeb, 0xbd,
 0x42, 0xc7, 0xe6, 0xbd, 0x84, 0xc9, 0x85, 0x3d, 0xf0, 0x0b, 0x56, 0x3e,
 0x35, 0x5d, 0x3d, 0xbe, 0x5c, 0x85, 0x6b, 0xbe, 0xc0, 0xf5, 0xe2, 0x3b,
 0x02, 0x05, 0xa6, 0xbe, 0xa0, 0x5f, 0x7f, 0xbc, 0xe0, 0xf9, 0xbe, 0xbc,
 0xbf, 0xc2, 0x36, 0xbe, 0x72, 0x08, 0x21, 0x3e, 0xda, 0x49, 0x90, 0xbe,
 0x92, 0x2f, 0x85, 0x3e, 0x20, 0xe4, 0xc5, 0xbd, 0x58, 0xa3, 0x1c, 0xbd,
 0x00, 0x8d, 0xaf, 0x3c, 0x2f, 0x75, 0x16, 0xbe, 0xac, 0x53, 0x8b, 0xbb,
 0x0b, 0x89, 0x54, 0xbe, 0xcf, 0xdf, 0xde, 0x3e, 0xc3, 0x30, 0xcd, 0x3d,
 0x4d, 0xab, 0xcb, 0x3c, 0xba, 0x59, 0xf7, 0xbd, 0x57, 0xbd, 0xc6, 0x3e,
 0xc9, 0x52, 0xc6, 0x3e, 0x24, 0x44, 0x26, 0xbe, 0x2a, 0x00, 0x9c, 0xbe,
 0x83, 0xe8, 0x45, 0x3d, 0x79, 0x54, 0x65, 0xbe, 0xba, 0x91, 0xbd, 0x3d,
 0x5b, 0x05, 0x63, 0xbe, 0xb9, 0x5b, 0x12, 0x3f, 0xf7, 0xd7, 0x14, 0x3e,
 0x5c, 0x82, 0x2f, 0xbe, 0x33, 0x49, 0xb0, 0x3d, 0x94, 0x46, 0x30, 0x3e,
 0x11, 0x7c, 0xfb, 0x3d, 0x0d, 0x1e, 0x07, 0x3f, 0xeb, 0x88, 0x97, 0xbe,
 0x27, 0x70, 0x6d, 0xbc, 0x41, 0x83, 0x04, 0xbe, 0x3a, 0xfe, 0xff, 0xff,
 0x04, 0x00, 0x00, 0x00, 0x3c, 0x00, 0x00, 0x00, 0x8d, 0xd3, 0xc1, 0xbc,
 0x00, 0x00, 0x00, 0x00, 0x00, 0x00, 0x00, 0x00, 0x41, 0x09, 0x8d, 0x3d,
 0x00, 0x00, 0x00, 0x00, 0x00, 0x00, 0x00, 0x00, 0x00, 0x00, 0x00, 0x00,
 0x00, 0x00, 0x00, 0x00, 0x49, 0xbf, 0x4f, 0x3d, 0x00, 0x00, 0x00, 0x00,
 0xc3, 0xc0, 0x5e, 0xbb, 0x00, 0x00, 0x00, 0x00, 0x00, 0x00, 0x00, 0x00,
 0xe6, 0x0b, 0x05, 0x3d, 0x00, 0x00, 0x00, 0x00, 0x82, 0xfe, 0xff, 0xff,
 0x04, 0x00, 0x00, 0x00, 0x08, 0x00, 0x00, 0x00, 0x63, 0xbc, 0x1f, 0x3d,
 0x50, 0xbc, 0x1f, 0xbd, 0x96, 0xfe, 0xff, 0xff, 0x04, 0x00, 0x00, 0x00,
 0xc8, 0x00, 0x00, 0x00, 0x4a, 0x31, 0xa0, 0xbd, 0xaa, 0xa1, 0x18, 0x3d,
 0xd6, 0xcc, 0x5e, 0xbd, 0x45, 0x33, 0x1c, 0xbd, 0x00, 0x00, 0x00, 0x00,
 0x00, 0x00, 0x00, 0x00, 0x72, 0xf7, 0xac, 0x3d, 0x00, 0x00, 0x00, 0x00,
 0x00, 0x00, 0x00, 0x00, 0x98, 0x77, 0x64, 0xba, 0x00, 0x00, 0x00, 0x00,
 0x00, 0x00, 0x00, 0x00, 0x34, 0x88, 0x26, 0x3d, 0xd5, 0x1b, 0xfc, 0x3d,
 0x29, 0xda, 0x17, 0xbd, 0x00, 0x00, 0x00, 0x00, 0x00, 0x00, 0x00, 0x00,
 0xdf, 0x7d, 0xb4, 0xbd, 0xf4, 0xb5, 0xfb, 0x3c, 0xd6, 0x35, 0x04, 0x3d,
 0x00, 0x00, 0x00, 0x00, 0x2d, 0x84, 0x4a, 0x3d, 0x3c, 0x97, 0x0c, 0x3d,
 0xfa, 0x7c, 0xac, 0x3b, 0x00, 0x00, 0x00, 0x00, 0xb3, 0x20, 0x56, 0xbd,
 0x00, 0x00, 0x00, 0x00, 0x47, 0x39, 0xf6, 0x3c, 0x00, 0x00, 0x00, 0x00,
 0x00, 0x00, 0x00, 0x00, 0x00, 0x00, 0x00, 0x00, 0x01, 0x9a, 0x53, 0xbc,
 0x00, 0x00, 0x00, 0x00, 0x00, 0x00, 0x00, 0x00, 0x00, 0x00, 0x00, 0x00,
 0x00, 0x00, 0x00, 0x00, 0x8c, 0x23, 0x3d, 0xbc, 0x29, 0xf5, 0xb5, 0xbc,
 0x4f, 0xf4, 0x74, 0xbc, 0x74, 0x4c, 0x9d, 0xbc, 0x00, 0x00, 0x00, 0x00,
 0x3a, 0x38, 0x5d, 0x3d, 0x00, 0x00, 0x00, 0x00, 0x00, 0x00, 0x00, 0x00,
 0x00, 0x00, 0x00, 0x00, 0x00, 0x00, 0x00, 0x00, 0xec, 0x91, 0x61, 0xbd,
 0x3c, 0x0b, 0xf4, 0x3c, 0x1f, 0x47, 0x46, 0xbd, 0x50, 0x80, 0x1d, 0xbd,
 0x94, 0xfa, 0xff, 0xff, 0x98, 0xfa, 0xff, 0xff, 0x0f, 0x00, 0x00, 0x00,
 0x4d, 0x4c, 0x49, 0x52, 0x20, 0x43, 0x6f, 0x6e, 0x76, 0x65, 0x72, 0x74,
 0x65, 0x64, 0x2e, 0x00, 0x01, 0x00, 0x00, 0x00, 0x14, 0x00, 0x00, 0x00,
 0x00, 0x00, 0x0e, 0x00, 0x18, 0x00, 0x14, 0x00, 0x10, 0x00, 0x0c, 0x00,
 0x08, 0x00, 0x04, 0x00, 0x0e, 0x00, 0x00, 0x00, 0x14, 0x00, 0x00, 0x00,
 0x1c, 0x00, 0x00, 0x00, 0x24, 0x01, 0x00, 0x00, 0x28, 0x01, 0x00, 0x00,
 0x2c, 0x01, 0x00, 0x00, 0x04, 0x00, 0x00, 0x00, 0x6d, 0x61, 0x69, 0x6e,
 0x00, 0x00, 0x00, 0x00, 0x04, 0x00, 0x00, 0x00, 0xcc, 0x00, 0x00, 0x00,
 0x84, 0x00, 0x00, 0x00, 0x50, 0x00, 0x00, 0x00, 0x14, 0x00, 0x00, 0x00,
 0x00, 0x00, 0x0e, 0x00, 0x1a, 0x00, 0x14, 0x00, 0x10, 0x00, 0x0c, 0x00,
 0x0b, 0x00, 0x04, 0x00, 0x0e, 0x00, 0x00, 0x00, 0x1c, 0x00, 0x00, 0x00,
 0x00, 0x00, 0x00, 0x09, 0x1c, 0x00, 0x00, 0x00, 0x20, 0x00, 0x00, 0x00,
 0x01, 0x00, 0x00, 0x00, 0x00, 0x00, 0x06, 0x00, 0x08, 0x00, 0x04, 0x00,
 0x06, 0x00, 0x00, 0x00, 0x00, 0x00, 0x80, 0x3f, 0x01, 0x00, 0x00, 0x00,
 0x0a, 0x00, 0x00, 0x00, 0x01, 0x00, 0x00, 0x00, 0x09, 0x00, 0x00, 0x00,
 0x9a, 0xff, 0xff, 0xff, 0x10, 0x00, 0x00, 0x00, 0x00, 0x00, 0x00, 0x08,
 0x0c, 0x00, 0x00, 0x00, 0x10, 0x00, 0x00, 0x00, 0x5c, 0xfb, 0xff, 0xff,
 0x01, 0x00, 0x00, 0x00, 0x09, 0x00, 0x00, 0x00, 0x03, 0x00, 0x00, 0x00,
 0x08, 0x00, 0x00, 0x00, 0x06, 0x00, 0x00, 0x00, 0x02, 0x00, 0x00, 0x00,
 0xca, 0xff, 0xff, 0xff, 0x10, 0x00, 0x00, 0x00, 0x00, 0x00, 0x00, 0x08,
 0x10, 0x00, 0x00, 0x00, 0x14, 0x00, 0x00, 0x00, 0xba, 0xff, 0xff, 0xff,
 0x00, 0x00, 0x00, 0x01, 0x01, 0x00, 0x00, 0x00, 0x08, 0x00, 0x00, 0x00,
 0x03, 0x00, 0x00, 0x00, 0x07, 0x00, 0x00, 0x00, 0x05, 0x00, 0x00, 0x00,
 0x03, 0x00, 0x00, 0x00, 0x00, 0x00, 0x0e, 0x00, 0x16, 0x00, 0x00, 0x00,
 0x10, 0x00, 0x0c, 0x00, 0x0b, 0x00, 0x04, 0x00, 0x0e, 0x00, 0x00, 0x00,
 0x18, 0x00, 0x00, 0x00, 0x00, 0x00, 0x00, 0x08, 0x18, 0x00, 0x00, 0x00,
 0x1c, 0x00, 0x00, 0x00, 0x00, 0x00, 0x06, 0x00, 0x08, 0x00, 0x07, 0x00,
 0x06, 0x00, 0x00, 0x00, 0x00, 0x00, 0x00, 0x01, 0x01, 0x00, 0x00, 0x00,
 0x07, 0x00, 0x00, 0x00, 0x03, 0x00, 0x00, 0x00, 0x00, 0x00, 0x00, 0x00,
 0x04, 0x00, 0x00, 0x00, 0x01, 0x00, 0x00, 0x00, 0x01, 0x00, 0x00, 0x00,
 0x0a, 0x00, 0x00, 0x00, 0x01, 0x00, 0x00, 0x00, 0x00, 0x00, 0x00, 0x00,
 0x0b, 0x00, 0x00, 0x00, 0xd0, 0x03, 0x00, 0x00, 0x6c, 0x03, 0x00, 0x00,
 0x08, 0x03, 0x00, 0x00, 0xb4, 0x02, 0x00, 0x00, 0x70, 0x02, 0x00, 0x00,
 0x28, 0x02, 0x00, 0x00, 0xe0, 0x01, 0x00, 0x00, 0x5c, 0x01, 0x00, 0x00,
 0xd0, 0x00, 0x00, 0x00, 0x5c, 0x00, 0x00, 0x00, 0x04, 0x00, 0x00, 0x00,
 0x70, 0xfc, 0xff, 0xff, 0x14, 0x00, 0x00, 0x00, 0x1c, 0x00, 0x00, 0x00,
 0x1c, 0x00, 0x00, 0x00, 0x0b, 0x00, 0x00, 0x00, 0x34, 0x00, 0x00, 0x00,
 0x02, 0x00, 0x00, 0x00, 0xff, 0xff, 0xff, 0xff, 0x02, 0x00, 0x00, 0x00,
 0x5c, 0xfc, 0xff, 0xff, 0x19, 0x00, 0x00, 0x00, 0x53, 0x74, 0x61, 0x74,
 0x65, 0x66, 0x75, 0x6c, 0x50, 0x61, 0x72, 0x74, 0x69, 0x74, 0x69, 0x6f,
 0x6e, 0x65, 0x64, 0x43, 0x61, 0x6c, 0x6c, 0x3a, 0x30, 0x00, 0x00, 0x00,
 0x02, 0x00, 0x00, 0x00, 0x01, 0x00, 0x00, 0x00, 0x02, 0x00, 0x00, 0x00,
 0xc4, 0xfc, 0xff, 0xff, 0x14, 0x00, 0x00, 0x00, 0x1c, 0x00, 0x00, 0x00,
 0x1c, 0x00, 0x00, 0x00, 0x0a, 0x00, 0x00, 0x00, 0x50, 0x00, 0x00, 0x00,
 0x02, 0x00, 0x00, 0x00, 0xff, 0xff, 0xff, 0xff, 0x02, 0x00, 0x00, 0x00,
 0xb0, 0xfc, 0xff, 0xff, 0x34, 0x00, 0x00, 0x00, 0x73, 0x65, 0x71, 0x75,
 0x65, 0x6e, 0x74, 0x69, 0x61, 0x6c, 0x2f, 0x64, 0x65, 0x6e, 0x73, 0x65,
 0x5f, 0x32, 0x2f, 0x4d, 0x61, 0x74, 0x4d, 0x75, 0x6c, 0x3b, 0x73, 0x65,
 0x71, 0x75, 0x65, 0x6e, 0x74, 0x69, 0x61, 0x6c, 0x2f, 0x64, 0x65, 0x6e,
 0x73, 0x65, 0x5f, 0x32, 0x2f, 0x42, 0x69, 0x61, 0x73, 0x41, 0x64, 0x64,
 0x00, 0x00, 0x00, 0x00, 0x02, 0x00, 0x00, 0x00, 0x01, 0x00, 0x00, 0x00,
 0x02, 0x00, 0x00, 0x00, 0x34, 0xfd, 0xff, 0xff, 0x14, 0x00, 0x00, 0x00,
 0x1c, 0x00, 0x00, 0x00, 0x1c, 0x00, 0x00, 0x00, 0x09, 0x00, 0x00, 0x00,
 0x68, 0x00, 0x00, 0x00, 0x02, 0x00, 0x00, 0x00, 0xff, 0xff, 0xff, 0xff,
 0x0f, 0x00, 0x00, 0x00, 0x20, 0xfd, 0xff, 0xff, 0x4c, 0x00, 0x00, 0x00,
 0x73, 0x65, 0x71, 0x75, 0x65, 0x6e, 0x74, 0x69, 0x61, 0x6c, 0x2f, 0x64,
 0x65, 0x6e, 0x73, 0x65, 0x5f, 0x31, 0x2f, 0x4d, 0x61, 0x74, 0x4d, 0x75,
 0x6c, 0x3b, 0x73, 0x65, 0x71, 0x75, 0x65, 0x6e, 0x74, 0x69, 0x61, 0x6c,
 0x2f, 0x64, 0x65, 0x6e, 0x73, 0x65, 0x5f, 0x31, 0x2f, 0x52, 0x65, 0x6c,
 0x75, 0x3b, 0x73, 0x65, 0x71, 0x75, 0x65, 0x6e, 0x74, 0x69, 0x61, 0x6c,
 0x2f, 0x64, 0x65, 0x6e, 0x73, 0x65, 0x5f, 0x31, 0x2f, 0x42, 0x69, 0x61,
 0x73, 0x41, 0x64, 0x64, 0x00, 0x00, 0x00, 0x00, 0x02, 0x00, 0x00, 0x00,
 0x01, 0x00, 0x00, 0x00, 0x0f, 0x00, 0x00, 0x00, 0xbc, 0xfd, 0xff, 0xff,
 0x14, 0x00, 0x00, 0x00, 0x1c, 0x00, 0x00, 0x00, 0x1c, 0x00, 0x00, 0x00,
 0x08, 0x00, 0x00, 0x00, 0x60, 0x00, 0x00, 0x00, 0x02, 0x00, 0x00, 0x00,
 0xff, 0xff, 0xff, 0xff, 0x32, 0x00, 0x00, 0x00, 0xa8, 0xfd, 0xff, 0xff,
 0x46, 0x00, 0x00, 0x00, 0x73, 0x65, 0x71, 0x75, 0x65, 0x6e, 0x74, 0x69,
 0x61, 0x6c, 0x2f, 0x64, 0x65, 0x6e, 0x73, 0x65, 0x2f, 0x4d, 0x61, 0x74,
 0x4d, 0x75, 0x6c, 0x3b, 0x73, 0x65, 0x71, 0x75, 0x65, 0x6e, 0x74, 0x69,
 0x61, 0x6c, 0x2f, 0x64, 0x65, 0x6e, 0x73, 0x65, 0x2f, 0x52, 0x65, 0x6c,
 0x75, 0x3b, 0x73, 0x65, 0x71, 0x75, 0x65, 0x6e, 0x74, 0x69, 0x61, 0x6c,
 0x2f, 0x64, 0x65, 0x6e, 0x73, 0x65, 0x2f, 0x42, 0x69, 0x61, 0x73, 0x41,
 0x64, 0x64, 0x00, 0x00, 0x02, 0x00, 0x00, 0x00, 0x01, 0x00, 0x00, 0x00,
 0x32, 0x00, 0x00, 0x00, 0x96, 0xfe, 0xff, 0xff, 0x10, 0x00, 0x00, 0x00,
 0x10, 0x00, 0x00, 0x00, 0x07, 0x00, 0x00, 0x00, 0x28, 0x00, 0x00, 0x00,
 0x18, 0xfe, 0xff, 0xff, 0x19, 0x00, 0x00, 0x00, 0x73, 0x65, 0x71, 0x75,
 0x65, 0x6e, 0x74, 0x69, 0x61, 0x6c, 0x2f, 0x64, 0x65, 0x6e, 0x73, 0x65,
 0x5f, 0x32, 0x2f, 0x4d, 0x61, 0x74, 0x4d, 0x75, 0x6c, 0x00, 0x00, 0x00,
 0x02, 0x00, 0x00, 0x00, 0x02, 0x00, 0x00, 0x00, 0x0f, 0x00, 0x00, 0x00,
 0xda, 0xfe, 0xff, 0xff, 0x10, 0x00, 0x00, 0x00, 0x10, 0x00, 0x00, 0x00,
 0x06, 0x00, 0x00, 0x00, 0x28, 0x00, 0x00, 0x00, 0x5c, 0xfe, 0xff, 0xff,
 0x19, 0x00, 0x00, 0x00, 0x73, 0x65, 0x71, 0x75, 0x65, 0x6e, 0x74, 0x69,
 0x61, 0x6c, 0x2f, 0x64, 0x65, 0x6e, 0x73, 0x65, 0x5f, 0x31, 0x2f, 0x4d,
 0x61, 0x74, 0x4d, 0x75, 0x6c, 0x00, 0x00, 0x00, 0x02, 0x00, 0x00, 0x00,
 0x0f, 0x00, 0x00, 0x00, 0x32, 0x00, 0x00, 0x00, 0x1e, 0xff, 0xff, 0xff,
 0x10, 0x00, 0x00, 0x00, 0x10, 0x00, 0x00, 0x00, 0x05, 0x00, 0x00, 0x00,
 0x24, 0x00, 0x00, 0x00, 0xa0, 0xfe, 0xff, 0xff, 0x17, 0x00, 0x00, 0x00,
 0x73, 0x65, 0x71, 0x75, 0x65, 0x6e, 0x74, 0x69, 0x61, 0x6c, 0x2f, 0x64,
 0x65, 0x6e, 0x73, 0x65, 0x2f, 0x4d, 0x61, 0x74, 0x4d, 0x75, 0x6c, 0x00,
 0x02, 0x00, 0x00, 0x00, 0x32, 0x00, 0x00, 0x00, 0x06, 0x00, 0x00, 0x00,
 0x5e, 0xff, 0xff, 0xff, 0x10, 0x00, 0x00, 0x00, 0x10, 0x00, 0x00, 0x00,
 0x04, 0x00, 0x00, 0x00, 0x38, 0x00, 0x00, 0x00, 0xe0, 0xfe, 0xff, 0xff,
 0x29, 0x00, 0x00, 0x00, 0x73, 0x65, 0x71, 0x75, 0x65, 0x6e, 0x74, 0x69,
 0x61, 0x6c, 0x2f, 0x64, 0x65, 0x6e, 0x73, 0x65, 0x5f, 0x31, 0x2f, 0x42,
 0x69, 0x61, 0x73, 0x41, 0x64, 0x64, 0x2f, 0x52, 0x65, 0x61, 0x64, 0x56,
 0x61, 0x72, 0x69, 0x61, 0x62, 0x6c, 0x65, 0x4f, 0x70, 0x00, 0x00, 0x00,
 0x01, 0x00, 0x00, 0x00, 0x0f, 0x00, 0x00, 0x00, 0xae, 0xff, 0xff, 0xff,
 0x10, 0x00, 0x00, 0x00, 0x10, 0x00, 0x00, 0x00, 0x03, 0x00, 0x00, 0x00,
 0x38, 0x00, 0x00, 0x00, 0x30, 0xff, 0xff, 0xff, 0x29, 0x00, 0x00, 0x00,
 0x73, 0x65, 0x71, 0x75, 0x65, 0x6e, 0x74, 0x69, 0x61, 0x6c, 0x2f, 0x64,
 0x65, 0x6e, 0x73, 0x65, 0x5f, 0x32, 0x2f, 0x42, 0x69, 0x61, 0x73, 0x41,
 0x64, 0x64, 0x2f, 0x52, 0x65, 0x61, 0x64, 0x56, 0x61, 0x72, 0x69, 0x61,
 0x62, 0x6c, 0x65, 0x4f, 0x70, 0x00, 0x00, 0x00, 0x01, 0x00, 0x00, 0x00,
 0x02, 0x00, 0x00, 0x00, 0x00, 0x00, 0x0e, 0x00, 0x14, 0x00, 0x10, 0x00,
 0x00, 0x00, 0x0c, 0x00, 0x08, 0x00, 0x04, 0x00, 0x0e, 0x00, 0x00, 0x00,
 0x10, 0x00, 0x00, 0x00, 0x10, 0x00, 0x00, 0x00, 0x02, 0x00, 0x00, 0x00,
 0x34, 0x00, 0x00, 0x00, 0x90, 0xff, 0xff, 0xff, 0x27, 0x00, 0x00, 0x00,
 0x73, 0x65, 0x71, 0x75, 0x65, 0x6e, 0x74, 0x69, 0x61, 0x6c, 0x2f, 0x64,
 0x65, 0x6e, 0x73, 0x65, 0x2f, 0x42, 0x69, 0x61, 0x73, 0x41, 0x64, 0x64,
 0x2f, 0x52, 0x65, 0x61, 0x64, 0x56, 0x61, 0x72, 0x69, 0x61, 0x62, 0x6c,
 0x65, 0x4f, 0x70, 0x00, 0x01, 0x00, 0x00, 0x00, 0x32, 0x00, 0x00, 0x00,
 0x14, 0x00, 0x18, 0x00, 0x14, 0x00, 0x00, 0x00, 0x10, 0x00, 0x0c, 0x00,
 0x08, 0x00, 0x00, 0x00, 0x00, 0x00, 0x04, 0x00, 0x14, 0x00, 0x00, 0x00,
 0x14, 0x00, 0x00, 0x00, 0x20, 0x00, 0x00, 0x00, 0x20, 0x00, 0x00, 0x00,
 0x01, 0x00, 0x00, 0x00, 0x3c, 0x00, 0x00, 0x00, 0x02, 0x00, 0x00, 0x00,
 0xff, 0xff, 0xff, 0xff, 0x06, 0x00, 0x00, 0x00, 0x04, 0x00, 0x04, 0x00,
 0x04, 0x00, 0x00, 0x00, 0x1d, 0x00, 0x00, 0x00, 0x73, 0x65, 0x72, 0x76,
 0x69, 0x6e, 0x67, 0x5f, 0x64, 0x65, 0x66, 0x61, 0x75, 0x6c, 0x74, 0x5f,
 0x64, 0x65, 0x6e, 0x73, 0x65, 0x5f, 0x69, 0x6e, 0x70, 0x75, 0x74, 0x3a,
 0x30, 0x00, 0x00, 0x00, 0x02, 0x00, 0x00, 0x00, 0x01, 0x00, 0x00, 0x00,
 0x06, 0x00, 0x00, 0x00, 0x02, 0x00, 0x00, 0x00, 0x20, 0x00, 0x00, 0x00,
 0x04, 0x00, 0x00, 0x00, 0xf4, 0xff, 0xff, 0xff, 0x19, 0x00, 0x00, 0x00,
 0x00, 0x00, 0x00, 0x19, 0x0c, 0x00, 0x0c, 0x00, 0x0b, 0x00, 0x00, 0x00,
 0x00, 0x00, 0x04, 0x00, 0x0c, 0x00, 0x00, 0x00, 0x09, 0x00, 0x00, 0x00,
 0x00, 0x00, 0x00, 0x09
};