unsigned char model[] = {0x1c,0x00,0x00,0x00,0x54,0x46,0x4c,0x33,0x14,0x00,0x20,0x00,0x1c,0x00,0x18,0x00,0x14,0x00,0x10,0x00,0x0c,0x00,0x00,0x00,0x08,0x00,0x04,0x00,0x14,0x00,0x00,0x00,0x1c,0x00,0x00,0x00,0x90,0x00,0x00,0x00,0xe8,0x00,0x00,0x00,0xec,0x13,0x00,0x00,0xfc,0x13,0x00,0x00,0xb8,0x19,0x00,0x00,0x03,0x00,0x00,0x00,0x01,0x00,0x00,0x00,0x10,0x00,0x00,0x00,0x00,0x00,0x0a,0x00,0x10,0x00,0x0c,0x00,0x08,0x00,0x04,0x00,0x0a,0x00,0x00,0x00,0x0c,0x00,0x00,0x00,0x1c,0x00,0x00,0x00,0x38,0x00,0x00,0x00,0x0f,0x00,0x00,0x00,0x73,0x65,0x72,0x76,0x69,0x6e,0x67,0x5f,0x64,0x65,0x66,0x61,0x75,0x6c,0x74,0x00,0x01,0x00,0x00,0x00,0x04,0x00,0x00,0x00,0x98,0xff,0xff,0xff,0x0a,0x00,0x00,0x00,0x04,0x00,0x00,0x00,0x07,0x00,0x00,0x00,0x64,0x65,0x6e,0x73,0x65,0x5f,0x32,0x00,0x01,0x00,0x00,0x00,0x04,0x00,0x00,0x00,0xf6,0xeb,0xff,0xff,0x04,0x00,0x00,0x00,0x0b,0x00,0x00,0x00,0x64,0x65,0x6e,0x73,0x65,0x5f,0x69,0x6e,0x70,0x75,0x74,0x00,0x02,0x00,0x00,0x00,0x34,0x00,0x00,0x00,0x04,0x00,0x00,0x00,0xdc,0xff,0xff,0xff,0x0d,0x00,0x00,0x00,0x04,0x00,0x00,0x00,0x13,0x00,0x00,0x00,0x43,0x4f,0x4e,0x56,0x45,0x52,0x53,0x49,0x4f,0x4e,0x5f,0x4d,0x45,0x54,0x41,0x44,0x41,0x54,0x41,0x00,0x08,0x00,0x0c,0x00,0x08,0x00,0x04,0x00,0x08,0x00,0x00,0x00,0x0c,0x00,0x00,0x00,0x04,0x00,0x00,0x00,0x13,0x00,0x00,0x00,0x6d,0x69,0x6e,0x5f,0x72,0x75,0x6e,0x74,0x69,0x6d,0x65,0x5f,0x76,0x65,0x72,0x73,0x69,0x6f,0x6e,0x00,0x0e,0x00,0x00,0x00,0x00,0x13,0x00,0x00,0xf8,0x12,0x00,0x00,0xac,0x12,0x00,0x00,0x94,0x12,0x00,0x00,0xbc,0x11,0x00,0x00,0xfc,0x0c,0x00,0x00,0x34,0x01,0x00,0x00,0xac,0x00,0x00,0x00,0xa4,0x00,0x00,0x00,0x9c,0x00,0x00,0x00,0x94,0x00,0x00,0x00,0x8c,0x00,0x00,0x00,0x6c,0x00,0x00,0x00,0x04,0x00,0x00,0x00,0xa6,0xec,0xff,0xff,0x04,0x00,0x00,0x00,0x58,0x00,0x00,0x00,0x0c,0x00,0x00,0x00,0x08,0x00,0x0e,0x00,0x08,0x00,0x04,0x00,0x08,0x00,0x00,0x00,0x10,0x00,0x00,0x00,0x28,0x00,0x00,0x00,0x00,0x00,0x06,0x00,0x08,0x00,0x04,0x00,0x06,0x00,0x00,0x00,0x04,0x00,0x00,0x00,0x01,0x00,0x00,0x00,0xea,0x03,0x00,0x00,0x00,0x00,0x0a,0x00,0x10,0x00,0x0c,0x00,0x08,0x00,0x04,0x00,0x0a,0x00,0x00,0x00,0x02,0x00,0x00,0x00,0x02,0x00,0x00,0x00,0x04,0x00,0x00,0x00,0x06,0x00,0x00,0x00,0x32,0x2e,0x31,0x31,0x2e,0x30,0x00,0x00,0x0a,0xed,0xff,0xff,0x04,0x00,0x00,0x00,0x10,0x00,0x00,0x00,0x31,0x2e,0x35,0x2e,0x30,0x00,0x00,0x00,0x00,0x00,0x00,0x00,0x00,0x00,0x00,0x00,0x18,0xe8,0xff,0xff,0x1c,0xe8,0xff,0xff,0x20,0xe8,0xff,0xff,0x24,0xe8,0xff,0xff,0x36,0xed,0xff,0xff,0x04,0x00,0x00,0x00,0x78,0x00,0x00,0x00,0x2a,0x28,0x12,0x3f,0xac,0x9e,0xbc,0x3e,0x63,0xf3,0x80,0xbd,0x0a,0x0f,0x27,0x3f,0x4e,0x1e,0x2b,0xbe,0x3e,0x43,0xb5,0x3e,0x3e,0xc0,0x48,0x3e,0x1b,0x26,0x2f,0xbf,0x79,0x2e,0x43,0xbf,0xf6,0x01,0xb1,0xbe,0xb7,0x2c,0x28,0x3f,0x4b,0x01,0x0a,0xbf,0x54,0x7c,0x80,0x3e,0x5d,0x50,0xd1,0x3e,0xdd,0x8c,0x98,0xbe,0x0c,0xac,0xcc,0x3e,0x99,0x8d,0x0c,0xbe,0x74,0xec,0xd0,0x3e,0x0b,0x81,0x45,0x3e,0x56,0x1c,0x12,0xbf,0x6f,0xcf,0x1a,0xbf,0xb9,0x9e,0x20,0x3f,0x04,0xcc,0x3b,0x3f,0x42,0xf4,0x14,0x3f,0x69,0x71,0x96,0x3d,0xaf,0xdf,0xff,0xbe,0xf7,0x20,0xdf,0x3d,0x60,0x12,0xbb,0x3c,0x60,0xa6,0x27,0x3f,0xc1,0xa1,0x08,0xbf,0xba,0xed,0xff,0xff,0x04,0x00,0x00,0x00,0xb8,0x0b,0x00,0x00,0x60,0xcb,0x43,0xbd,0x3c,0xa0,0x39,0x3e,0x96,0xe8,0x2d,0x3e,0xde,0x0d,0xfc,0xbd,0xe0,0xf6,0x5d,0xbd,0x78,0xf6,0xd9,0x3d,0xe2,0x84,0x16,0xbe,0x70,0xe1,0xa1,0x3c,0x80,0x45,0xcc,0x3d,0xd0,0x37,0xce,0x3d,0xfd,0xcc,0x47,0xbe,0xce,0x90,0xb3,0xbd,0xba,0x5a,0x0c,0x3e,0x60,0xeb,0xe3,0x3d,0x08,0x7d,0x98,0x3d,0x00,0xa8,0xc6,0xbb,0x12,0x47,0x18,0xbe,0x54,0xc3,0xe9,0xbd,0x20,0xf6,0x90,0xbe,0x77,0x77,0x80,0xbe,0xb6,0xbc,0x22,0xbe,0x08,0xf1,0x64,0x3e,0x02,0x69,0x90,0x3e,0x20,0xd3,0xf2,0xbc,0x22,0xb4,0x7a,0xbe,0xd8,0xba,0x90,0x3d,0x6c,0x75,0x2e,0x3e,0x74,0x68,0xa2,0xbd,0xbe,0x88,0x7a,0xbe,0x02,0x82,0x15,0xbe,0x41,0x15,0x93,0xbe,0xd0,0x47,0xbc,0xbd,0x40,0xd0,0xd4,0x3c,0xf4,0x1a,0xde,0x3d,0xa8,0xc4,0x7a,0x3e,0xce,0x82,0xbe,0xbd,0x25,0x95,0x8c,0xbe,0xec,0x0e,0xb8,0x3d,0x1c,0x9a,0x09,0x3e,0xd0,0x72,0x01,0x3e,0xc4,0x50,0x60,0x3e,0xcc,0x34,0x8a,0x3e,0xa2,0x34,0x37,0x3e,0xd0,0x10,0xc5,0x3d,0x50,0xe1,0xd8,0xbc,0xc0,0x06,0x8b,0xbc,0xf6,0xb9,0x0f,0x3e,0x30,0x32,0x70,0x3e,0xee,0xa5,0x6e,0xbe,0x60,0x4d,0xb3,0xbc,0x6d,0x1d,0xd9,0xbd,0xe8,0x0e,0xc5,0x3d,0xa0,0x75,0x8a,0x3e,0x5b,0xd9,0xa3,0xbe,0x34,0xb6,0x0d,0x3e,0xc1,0xe7,0x3b,0x3e,0x64,0x27,0x9a,0x3e,0xd2,0x9c,0xcd,0xbd,0x78,0xfb,0x70,0xbd,0x83,0x54,0x3c,0x3e,0x5c,0xf6,0x14,0x3d,0x54,0xf6,0x0d,0x3e,0x55,0xa3,0xe6,0xbc,0x70,0xb2,0x89,0x3d,0x15,0x7b,0x1b,0x3e,0xae,0x7e,0x00,0x3e,0xd2,0x06,0xd5,0xbc,0xc4,0x83,0x08,0x3e,0x4d,0xc2,0x8e,0x3e,0xe6,0xd3,0x91,0x3e,0x44,0x2f,0x4a,0xbe,0xe5,0xbb,0x56,0xbe,0xe3,0x49,0x8b,0x3d,0xee,0x45,0x74,0xbe,0x15,0x43,0xec,0xbd,0xea,0x60,0x76,0xbe,0x6e,0xbc,0x2b,0xbe,0x6e,0x73,0x0a,0xbc,0x08,0x4a,0x0d,0x3e,0x28,0xf9,0x82,0x3e,0x24,0x9b,0xdf,0x3d,0x76,0xfe,0x5b,0xbe,0xec,0x0d,0xcd,0xbe,0x98,0xb5,0x14,0x3e,0x2d,0x34,0xc0,0x3d,0x94,0x98,0x95,0xbd,0x51,0x92,0x0c,0xbe,0xd8,0xf8,0xc9,0x3d,0xf8,0xe1,0x2a,0x3e,0xcc,0x45,0x91,0x3d,0xf0,0x4c,0x65,0x3e,0x4e,0xc8,0x0e,0x3e,0x07,0x5a,0x37,0x3e,0xd0,0xed,0x99,0x3e,0x6a,0x93,0x78,0x3d,0x36,0xe6,0x84,0xbe,0x8a,0x28,0x66,0xbe,0xd0,0x6b,0x81,0x3e,0x71,0x1b,0xc3,0x3d,0xfe,0x21,0x20,0xbe,0xf9,0x65,0xf9,0x3d,0x72,0xa7,0x80,0x3e,0x1f,0x47,0x59,0x3e,0xa4,0x32,0xc8,0x3e,0x4e,0xd6,0x4d,0x3e,0x58,0xa9,0x5a,0x3d,0xf1,0x78,0x6a,0x3e,0xff,0x60,0x05,0xbe,0x80,0x7e,0x54,0x3e,0x39,0x30,0x47,0xbe,0x12,0xd6,0x35,0xbe,0x85,0xcb,0x13,0xbe,0xe7,0xab,0x1f,0xbc,0x48,0x36,0xe4,0x3d,0x39,0xb2,0xa9,0xbd,0xc5,0x59,0x73,0x3d,0xdf,0x19,0xfa,0x3d,0x0b,0x95,0xa4,0xbc,0xff,0xeb,0x6c,0xbe,0x30,0x12,0x84,0xbe,0x00,0xbf,0x81,0xbe,0x6f,0x02,0xbe,0x3d,0xe1,0x85,0xda,0x3d,0x4e,0xf9,0x5c,0xbe,0x19,0xc2,0x8b,0x3e,0xea,0x55,0x20,0x3d,0x53,0x5c,0x45,0x3e,0x6d,0x36,0x81,0x3e,0x73,0xf5,0x91,0xbd,0x46,0xc7,0x61,0xba,0x80,0xf1,0x3f,0x3e,0xfa,0x53,0x10,0xbe,0x8f,0xfc,0x80,0x3e,0xd6,0x6e,0xfb,0xbd,0x5f,0xda,0x51,0xbe,0x9a,0x72,0xa0,0x3d,0x8a,0xa5,0x6b,0x3e,0xec,0xe0,0x4f,0x3e,0xd8,0x87,0x1e,0xbd,0x3b,0x82,0x22,0x3e,0xfc,0x7e,0x83,0x3b,0x40,0xd9,0xe8,0xbb,0x64,0x2a,0x58,0x3e,0xa0,0x58,0x6c,0x3c,0x22,0x00,0xac,0x3e,0xec,0x2d,0x73,0xbd,0xf3,0xee,0xff,0xbd,0xa8,0x18,0xdb,0x3d,0xa6,0xb6,0x6f,0xbd,0x70,0xb8,0x5d,0x3d,0x7b,0x78,0xae,0xbc,0xf4,0x37,0x45,0x3e,0x09,0x53,0x88,0x3e,0x7a,0xab,0x47,0xbe,0x5f,0xa9,0x19,0x3e,0x43,0xce,0x85,0xbe,0xd3,0x1f,0x81,0xbe,0xd0,0x36,0x8a,0x3c,0x11,0x04,0x2c,0xbe,0xf3,0x04,0x77,0x3d,0x11,0xb0,0x68,0xbe,0x0c,0xbb,0x7b,0x3e,0x61,0x63,0x2f,0xbd,0xac,0xfa,0x72,0x3e,0x5d,0x33,0x0c,0x3e,0xe3,0xea,0x25,0xbe,0xf5,0xd8,0x8e,0x3d,0x72,0x8f,0xf2,0xbd,0xff,0x48,0xa3,0x3e,0x10,0xb6,0xd2,0x3d,0x6c,0x78,0x10,0xbd,0xe8,0x5c,0x41,0xbe,0x3b,0xcc,0x43,0x3e,0x8f,0xf4,0x27,0xbe,0x1f,0x17,0xdc,0xbc,0xc0,0x88,0x54,0xbe,0xd4,0x5b,0x0c,0x3e,0x32,0x0f,0x41,0xbb,0x19,0xcb,0x07,0xbc,0x8f,0xa2,0x4d,0x3e,0xe0,0x46,0x32,0xbe,0x5e,0xa6,0x8c,0x3e,0xb8,0x41,0x2a,0x3d,0xd3,0xeb,0x8e,0x3e,0x4c,0x34,0x9c,0x3d,0x54,0x22,0xca,0x3a,0x7f,0x4a,0xa0,0xbc,0x34,0x9f,0xae,0xbd,0x48,0x07,0x85,0x3e,0xc0,0xe7,0x40,0x3e,0x9a,0x4c,0x1f,0x3e,0x08,0x24,0x4b,0x3e,0x24,0x11,0x62,0x3e,0x60,0x84,0x08,0x3e,0x67,0x29,0xe6,0xbd,0xf0,0x62,0x61,0x3e,0x9d,0x64,0x0e,0x3e,0xe2,0xf6,0x56,0xbe,0x1c,0xef,0xae,0x3e,0x4a,0xf9,0x49,0xbe,0x0c,0x62,0xec,0xbd,0x2a,0xd5,0x9f,0xbd,0xa9,0xc7,0x7d,0xbe,0xf4,0xfa,0x99,0xbe,0xa7,0xf9,0x06,0xbe,0xa0,0x7a,0x89,0x3e,0xec,0x99,0x6f,0xbe,0xd2,0x73,0x92,0xbe,0xa6,0x37,0x3e,0x3e,0x50,0x92,0x6b,0x3e,0xa9,0x19,0x81,0xbe,0xe6,0x2c,0x37,0x3e,0x54,0x7c,0x53,0x3e,0x04,0x7a,0x02,0xbe,0xca,0xca,0x87,0xbe,0xeb,0xa5,0x8f,0xbe,0x00,0xf2,0x70,0xbb,0x5c,0xe6,0xce,0x3d,0x28,0x87,0x32,0x3d,0xfa,0x05,0x88,0x3e,0x24,0x7c,0x43,0xbe,0x54,0xfb,0x1a,0x3e,0x10,0xca,0x53,0x3e,0xdc,0xf3,0xe4,0xbd,0x0c,0x60,0x83,0xbd,0x00,0x71,0x59,0xbb,0x5a,0x86,0x8e,0xbe,0x3a,0x4a,0x31,0x3e,0xa2,0xc8,0x05,0x3e,0x28,0x62,0x89,0xbe,0xce,0xb3,0x95,0x3e,0x68,0x29,0xd1,0x3d,0x80,0x2b,0xa6,0x3d,0x3e,0xbf,0x99,0xbe,0xf4,0xd7,0x48,0xbe,0x2e,0x7e,0xd2,0xbd,0xbc,0x9d,0xdc,0x3d,0x47,0x95,0x06,0xbe,0x0b,0x3c,0x49,0xbe,0xb4,0x42,0xdc,0xbd,0xa0,0x5c,0x38,0x3e,0x40,0x13,0x5f,0x3d,0xd6,0x13,0x5b,0xbe,0xba,0xec,0x98,0xbd,0xdc,0xdf,0xe1,0xbd,0xe2,0x1c,0x8f,0x3e,0xc0,0xfa,0x6c,0x3d,0xd8,0x5d,0x3a,0x3e,0xda,0xa6,0x85,0xbd,0x65,0x76,0x97,0xbe,0xcb,0x13,0xc8,0xbb,0xaa,0x6d,0x5d,0x3e,0xbe,0xed,0xa7,0x3e,0x26,0xf6,0xad,0xbe,0x8f,0x35,0x62,0xbe,0xda,0x6d,0x3f,0xbe,0xa2,0x74,0x80,0x3e,0xc0,0xb5,0xb4,0xbc,0x60,0xc9,0x55,0x3e,0x28,0x1f,0xc5,0xbd,0x02,0x5c,0x9a,0x3e,0x84,0x11,0x4e,0x3e,0x34,0xd0,0xeb,0x3d,0x44,0xd7,0xfd,0x3d,0x5d,0x04,0xa1,0x3d,0x15,0xf5,0x9a,0xbd,0x9f,0x97,0x83,0x3d,0x83,0x88,0xf0,0x3d,0xf2,0xd4,0xb6,0x3e,0x01,0x08,0xe4,0x3e,0x48,0x9a,0x8f,0x3e,0x61,0x99,0xfe,0xbd,0x68,0x99,0x5f,0x3e,0xba,0x2b,0xef,0xbd,0x2a,0x4f,0xb7,0xbe,0x30,0x89,0x8c,0xbc,0xbc,0xef,0x46,0x3e,0x13,0xbf,0x47,0x3e,0x94,0x7a,0x33,0x3d,0xe2,0x90,0xf5,0xbc,0x3a,0xab,0x08,0xbe,0x80,0xaf,0xe3,0x3b,0x20,0xd9,0xad,0xbe,0xd0,0xba,0x60,0xbd,0xe2,0xf7,0x46,0x3e,0x22,0xdc,0x87,0xbe,0xe9,0x00,0x0f,0xbe,0xc0,0x7d,0xf4,0x3c,0x3a,0x37,0x88,0xbd,0xb9,0xcc,0xc4,0x3e,0x61,0x08,0xaa,0xbe,0x64,0xdf,0xb4,0x3d,0xb0,0xd7,0x48,0xbe,0xa1,0x2b,0x88,0xbe,0x5a,0x17,0xdb,0x3d,0x80,0xcb,0x24,0x3c,0xcf,0x96,0x32,0x3b,0xe9,0xd2,0x49,0xbe,0x41,0x5d,0xc1,0x3e,0xac,0x74,0x51,0xbe,0xf6,0x4a,0x07,0x3e,0x25,0x1b,0x8c,0x3d,0xba,0x8a,0xcd,0x3b,0x30,0x81,0xd9,0x3e,0x08,0x6a,0x6d,0xbe,0x3e,0x43,0x99,0xbe,0xa0,0xb0,0x03,0x3e,0x3c,0xa4,0x16,0x3e,0xd0,0x2a,0x7a,0x3e,0xfb,0x20,0x02,0xbe,0x02,0xe2,0x84,0x3e,0xcc,0x89,0xc3,0x3d,0xcb,0x8e,0x59,0xbe,0x74,0x68,0x52,0x3e,0x97,0xbc,0x4d,0x3e,0xab,0x30,0x1d,0x3d,0xa2,0xd3,0x19,0x3e,0x71,0xfe,0x12,0x3e,0xc2,0x04,0xab,0xbe,0xf6,0x64,0xc9,0xbd,0x25,0x51,0x62,0xbe,0x1e,0x7b,0x07,0xbe,0x44,0xfd,0x8e,0xbe,0x3a,0x2c,0x75,0xbe,0xa3,0x4e,0xdb,0xbc,0x8e,0x5b,0x9d,0x3e,0x9e,0xa1,0xcf,0x3d,0xc3,0x4b,0x43,0xbd,0xbb,0x63,0x90,0x3d,0x6e,0x73,0xb4,0xbd,0xd9,0xab,0x90,0xbe,0xce,0x60,0x96,0xbe,0x7b,0x0b,0x16,0xbe,0xfa,0x2f,0xfb,0xbd,0x06,0x6f,0xe7,0xbd,0x8c,0xaa,0x19,0x3e,0x8f,0x72,0xaa,0x3e,0x80,0xe2,0x95,0x3e,0x16,0x5a,0x88,0xbe,0x4d,0xc7,0x87,0xbe,0xa9,0x0d,0x92,0x3e,0xa0,0x88,0x55,0xbe,0x86,0xd4,0x67,0x3e,0x38,0x11,0xe1,0x3d,0x94,0xbd,0x46,0x3e,0x56,0x87,0x84,0x3e,0xed,0xdf,0x84,0xbb,0x18,0xbe,0x3a,0x3e,0xf5,0xea,0x40,0x3e,0xca,0x7e,0xe6,0xbd,0x4a,0x95,0xcc,0x3c,0x52,0xd4,0x98,0x3c,0x61,0x9a,0xf0,0x3d,0xc1,0xfe,0xb5,0x3d,0x7a,0x31,0xd6,0x3e,0x15,0x3f,0x24,0xbd,0xbf,0x66,0x8c,0x3d,0x06,0xd1,0x94,0x3e,0xaa,0x9d,0x35,0x3e,0x2d,0x5c,0x87,0x3e,0xd5,0x90,0xa2,0x3e,0x26,0x62,0x04,0x3e,0xc3,0x60,0x73,0xbe,0x24,0x08,0x1a,0xbe,0x12,0x28,0x35,0x3e,0xcd,0xee,0x0b,0xbd,0x68,0xf1,0x3a,0x3e,0x55,0xcd,0x02,0xbe,0xe4,0x3b,0xaf,0xbd,0x32,0xe1,0xba,0xbe,0xf4,0x53,0x3c,0x3e,0xa8,0x31,0x2a,0xbe,0x96,0x2b,0x3b,0x3d,0x4f,0xa5,0x7d,0xbe,0x75,0x4b,0x77,0x3e,0x04,0x9d,0x59,0xbe,0x02,0xfb,0xca,0xbd,0xb8,0x19,0x37,0x3e,0xc6,0x8f,0xf9,0x3e,0x23,0x3e,0x94,0xbe,0xe4,0x8d,0x42,0xbe,0x59,0x87,0x13,0xbe,0xcc,0xcb,0x9e,0xbc,0xa3,0x60,0x92,0xbe,0xbb,0x33,0xba,0xbc,0x10,0x5e,0x9d,0x3e,0x04,0x58,0x24,0xbe,0x5b,0xee,0x28,0xbe,0x82,0x91,0x8d,0x3e,0x5e,0x25,0x31,0xbe,0x3e,0x20,0x53,0x3e,0x0f,0xe4,0x88,0xbe,0x1e,0x4b,0x43,0xbd,0xa4,0xac,0xa8,0x3d,0x7d,0x3a,0x70,0x3e,0xb8,0xf3,0x53,0x3e,0x1a,0x71,0xbb,0x3e,0x8b,0x65,0x28,0xbe,0x1a,0x07,0x34,0x3e,0x20,0x46,0x81,0x3d,0xbd,0xa7,0x47,0xbe,0x7e,0x7c,0xd2,0x3c,0x99,0xdf,0x01,0xbe,0xf8,0x17,0xbd,0x3e,0xbc,0x01,0x9a,0x3e,0xa5,0x01,0xf4,0xbd,0x0a,0x99,0x8d,0x3d,0xac,0xcf,0x73,0xbe,0xac,0xcb,0x8c,0x3e,0xc5,0x1c,0x76,0xbe,0xf2,0x6a,0x06,0xbc,0xe0,0x2c,0x01,0xbd,0x1d,0x6e,0x98,0xbe,0x8e,0x97,0x80,0x3e,0x69,0x5e,0xa4,0xbe,0x4b,0xdf,0xa5,0x3d,0x94,0xbb,0x64,0xbe,0xf8,0x7a,0x91,0xbc,0x77,0xd2,0x59,0xbd,0x1e,0x4f,0x23,0x3e,0x28,0x48,0x08,0xbe,0xb6,0x5c,0x66,0x3e,0x2f,0xd6,0x8e,0xbe,0x72,0xc8,0x13,0x3e,0xe0,0xde,0xc1,0x3e,0x09,0xa3,0xa3,0x3e,0x14,0x76,0xa9,0x3e,0x6b,0xdf,0x4e,0xbe,0x46,0x14,0xa4,0x3d,0xa8,0xb2,0x3d,0xbe,0x80,0x92,0x8c,0xbc,0xf8,0x6e,0x38,0xbd,0x08,0x96,0x2b,0x3e,0x6f,0x38,0xa6,0x3d,0x22,0xfd,0xfa,0xbc,0x9d,0x85,0xdc,0xbd,0x56,0x1f,0x1a,0x3e,0x6f,0xf0,0x11,0xbe,0x20,0xb1,0x64,0x3e,0x9a,0x3b,0x50,0x3e,0x3f,0x8b,0xaa,0x3e,0x80,0x50,0x0e,0xbc,0xa9,0x1c,0xb6,0x3c,0x78,0x28,0x3b,0xbe,0xb2,0xae,0x8d,0x3e,0x10,0xb8,0x99,0xbe,0x70,0xc1,0x8c,0xbc,0xd8,0x10,0x80,0x3d,0x9a,0x00,0x18,0xbe,0x9c,0xee,0x73,0x3e,0x52,0xf0,0x1f,0x3e,0xe5,0x5b,0x78,0x3e,0x38,0xff,0x7f,0x3e,0x73,0xb4,0xfb,0xbd,0x99,0x9d,0xd3,0x3d,0x2c,0x60,0x8f,0x3e,0x1a,0xf4,0x8a,0x3e,0xae,0x24,0x82,0xbe,0x98,0x8b,0x91,0xbe,0x81,0x53,0xb9,0x3d,0xae,0x16,0xf9,0xbb,0x0e,0xa4,0x21,0x3e,0xbb,0x3b,0xc1,0x3d,0x18,0xc3,0x7c,0x3e,0x5e,0x34,0xb9,0xbe,0xb8,0xdd,0x5f,0x3c,0x71,0xfc,0x3a,0x3c,0x39,0x0c,0xf9,0xbd,0x0b,0xaf,0x2f,0x3d,0xc0,0xcd,0x75,0xbc,0xb7,0x33,0x90,0x3e,0x85,0x8b,0xff,0xbd,0x70,0xac,0x38,0xbe,0x30,0xa9,0xf2,0x3d,0x2e,0xff,0x14,0x3e,0x94,0x69,0x0f,0x3d,0xbc,0x20,0x32,0xbd,0x63,0x08,0x85,0xbe,0x24,0xd2,0x0e,0x3e,0xba,0xae,0x10,0x3e,0x96,0x99,0xdf,0xbd,0xa1,0xc3,0x98,0xbe,0xcf,0xe9,0x84,0xbd,0x33,0x9b,0xc6,0xbe,0x09,0xe6,0x73,0xbd,0xd8,0x0a,0x3f,0xbe,0x18,0x23,0xdc,0x3d,0xf5,0xe0,0x24,0xbe,0x74,0x25,0x80,0x3e,0xeb,0x72,0x5c,0xbe,0xef,0x68,0xb4,0xbd,0x30,0x76,0x62,0x3e,0xe5,0x71,0x98,0xbe,0x34,0xf2,0xfa,0x3d,0x18,0x4c,0xdb,0xba,0x20,0xd2,0x7b,0xbd,0xa0,0x56,0x6c,0xbe,0x89,0x64,0x73,0xbe,0x1d,0xb2,0x62,0x3e,0xa6,0x46,0x92,0x3e,0xe3,0x98,0xcb,0x3d,0xe3,0x51,0x53,0xbd,0xd9,0xb1,0xd4,0x3d,0x35,0x03,0x5d,0xbe,0x87,0x52,0xa9,0x3d,0x0b,0x67,0x15,0xbe,0x9b,0xbf,0x27,0x3d,0x98,0x2b,0x76,0x3e,0x70,0xd8,0xc0,0xbc,0x26,0xfb,0x60,0xbe,0x77,0x76,0xb6,0xbd,0x96,0x4d,0x16,0x3e,0x03,0x5b,0x11,0x3e,0x47,0xcf,0x4d,0xbe,0x11,0x8f,0x6e,0x3e,0x77,0x13,0x89,0xbe,0x16,0xff,0x36,0xbe,0x40,0x77,0xe1,0x3d,0xf1,0x13,0x41,0xbd,0x1a,0x3f,0xb1,0x3e,0x62,0x2d,0x00,0x3c,0x09,0x43,0x49,0x3e,0x8d,0xb4,0x3b,0xbe,0x38,0x9f,0x93,0x3d,0xe6,0x01,0xa4,0x3b,0xd6,0x74,0xa2,0xbd,0x25,0xd0,0x84,0xbe,0x10,0xd5,0xe9,0x3d,0x3e,0xb6,0x8d,0xbe,0x05,0x92,0x77,0x3e,0x00,0xbf,0xa6,0xbb,0xb0,0x81,0x79,0x3d,0xd2,0x55,0x8e,0xbd,0xc6,0x19,0x84,0x3e,0x91,0x25,0x7c,0x3e,0x53,0xc4,0x02,0x3e,0xee,0xe2,0x5a,0xbd,0xe4,0x42,0x5c,0x3e,0x64,0x0f,0x84,0xbd,0xc6,0x29,0xd0,0x3e,0x95,0x14,0xa5,0xbe,0x48,0x1c,0x45,0xbe,0x30,0xfc,0x93,0x3e,0x12,0x87,0x8a,0xbe,0x55,0x6e,0x29,0x3e,0xd4,0xbf,0x74,0x3e,0xe7,0xff,0xf3,0xbd,0xe5,0x1a,0x17,0xbe,0x10,0xea,0xd1,0x3e,0xc4,0x04,0x33,0xbe,0x55,0xf2,0x99,0xbe,0xe6,0x5e,0x4a,0xbe,0x59,0xe6,0x3c,0xbe,0xee,0x67,0x6e,0xbe,0xbc,0x6b,0x50,0xbe,0xc6,0x38,0x5c,0xbe,0x32,0x05,0x02,0xbe,0x80,0x53,0xcb,0xbc,0x26,0xc9,0x03,0x3e,0x3b,0xac,0x96,0xbe,0xc6,0x05,0x75,0xbe,0x9e,0x9d,0x04,0xbe,0x21,0xeb,0x5d,0xbe,0x80,0x61,0xfd,0xbd,0x61,0xbb,0xf4,0xbd,0x2e,0x78,0x03,0x3e,0xa0,0x3a,0x88,0x3e,0x16,0xd9,0x20,0x3e,0xb6,0xbc,0x81,0x3e,0xfa,0xd1,0xba,0x3d,0xfe,0x61,0x29,0x3e,0x6c,0x51,0x3e,0x3e,0xc4,0xcd,0x68,0xbd,0x5b,0x6c,0x23,0xbe,0x45,0x62,0x81,0xbe,0xb4,0x47,0x93,0x3e,0xc1,0xf6,0x7f,0xbe,0x54,0xbd,0x80,0xbe,0xac,0xeb,0x77,0xbe,0xe4,0xaf,0x88,0xbd,0x35,0x06,0x1d,0xbe,0x00,0x79,0x7a,0xbb,0x84,0xb2,0x61,0xbe,0x07,0x1b,0x5a,0x3e,0x07,0xee,0x6c,0xbe,0x0f,0x21,0x0c,0xbe,0xc0,0xec,0x0a,0x3e,0x56,0x08,0x42,0x3e,0xb0,0xf3,0x14,0xbe,0x08,0x0d,0x54,0x3e,0x28,0x87,0xdc,0xbd,0x9a,0xf9,0x1f,0xbe,0xed,0xac,0x85,0x3e,0x6a,0x93,0x03,0x3e,0x53,0x7a,0x07,0x3e,0x1a,0x1b,0xf5,0xbd,0xe2,0x22,0x2c,0x3e,0xb0,0xf0,0x3d,0x3e,0x44,0x1b,0x4b,0xbe,0x00,0xee,0x34,0xbc,0x20,0x2b,0xf0,0x3d,0x0c,0x23,0xa4,0x3d,0x80,0x3d,0xe9,0x3b,0xa3,0x3a,0x22,0xbe,0x08,0x1d,0xe0,0x3d,0xaa,0x41,0x82,0x3e,0xb8,0x05,0x20,0x3e,0x2c,0x07,0x71,0xbd,0x68,0xf6,0x4e,0xbd,0x9a,0x14,0x66,0xbe,0xfe,0x92,0xb5,0xbd,0xb0,0xaf,0x0b,0x3d,0x38,0x35,0xe9,0x3d,0x54,0x97,0x6b,0x3e,0xb4,0xd6,0x8e,0xbd,0x48,0x1c,0x5f,0x3e,0x36,0xde,0x08,0x3e,0xf4,0xe3,0x84,0xbe,0x02,0x9f,0x91,0xbd,0xc0,0xf2,0x2c,0xbd,0x37,0x45,0x27,0xbe,0x8f,0x2b,0x92,0xbe,0x76,0x67,0x8b,0x3e,0x92,0xf2,0x8b,0xbe,0x80,0x4f,0x62,0xbc,0xfd,0x5e,0x5d,0xbe,0x46,0xcd,0xd5,0xbd,0x78,0x0c,0xf8,0x3d,0x6c,0x32,0x73,0xbe,0x96,0x5c,0x35,0x3e,0xd2,0xce,0x1f,0x3e,0x18,0xb1,0x20,0x3e,0x50,0x46,0x57,0xbd,0x10,0x3b,0x94,0xbc,0x9c,0x17,0xdd,0xbd,0xc2,0x7e,0xc5,0xbd,0xc6,0x90,0x66,0xbe,0x1b,0x78,0x1b,0xbe,0x27,0x31,0x04,0xbe,0x3a,0x89,0x8e,0xbe,0xb4,0xc7,0x5e,0x3e,0x90,0xd1,0xde,0x3d,0xce,0x8a,0xe8,0xbd,0x58,0x3c,0x5e,0x3e,0x00,0x0b,0x43,0xbc,0xb8,0x2c,0x57,0x3d,0xd8,0xbe,0x04,0x3d,0x72,0x6f,0x29,0x3e,0xbd,0x41,0x05,0xbe,0xa8,0xe7,0xe8,0x3d,0x1d,0x51,0xd9,0xbd,0x0f,0xb1,0x18,0xbe,0x4a,0x3e,0xb8,0x3d,0x96,0x85,0xda,0xbd,0x34,0xa9,0xfd,0x3d,0xc6,0x3e,0x83,0x3e,0xe3,0x4b,0xf3,0xbd,0xc6,0xe3,0x20,0x3e,0xc2,0xe6,0x7f,0xbe,0xcd,0x84,0x7a,0xbe,0x25,0xa3,0xcd,0x3d,0x2e,0x00,0x09,0x3e,0x53,0x8d,0x3c,0x3d,0x96,0x00,0x05,0x3e,0x6a,0x5b,0x93,0xbe,0xfc,0x5b,0x8c,0x3e,0xc9,0x50,0x86,0x3d,0x78,0xeb,0x16,0xbe,0x4f,0xb0,0x16,0x3d,0xa8,0x0a,0xf2,0x3d,0x70,0x7a,0x87,0x3d,0xbb,0x6f,0x09,0xbe,0xb0,0xc3,0xc3,0xbc,0xe3,0x5e,0x84,0xbe,0xe6,0x28,0xb0,0x3d,0x17,0x82,0x74,0xbe,0x00,0xb0,0xa1,0x3e,0x11,0x06,0x2b,0x3e,0xe2,0x24,0x9c,0x3d,0x51,0x14,0xe2,0xbd,0x20,0x99,0x61,0xbe,0x35,0x50,0x33,0xbe,0xaa,0x5b,0xd5,0x3d,0x84,0x63,0x96,0xbd,0x8c,0x57,0x25,0x3e,0xc2,0x1d,0xbd,0x3d,0x0f,0xe6,0x42,0x3e,0xe8,0x3d,0x74,0x3d,0xea,0xc8,0x85,0x3e,0x1c,0xd3,0xfb,0xbd,0xe2,0xbc,0x47,0x3e,0x20,0xb7,0x3f,0xbc,0xa9,0xcb,0xd3,0x3d,0x34,0xc1,0x32,0xbe,0x2c,0xae,0x89,0x3e,0xb4,0x30,0x30,0x3e,0x4f,0x67,0xae,0x3c,0x34,0x97,0x74,0xbe,0xf2,0x56,0xcd,0xbd,0x2c,0x3d,0xb7,0xbd,0xe8,0xbf,0x7a,0xbe,0x9a,0xeb,0x39,0xbe,0x36,0x8d,0x0d,0xbe,0xd5,0xc1,0x5f,0x3e,0x47,0x02,0x85,0xbe,0xd2,0x7a,0x85,0xbe,0x2b,0x49,0x32,0xbe,0xf8,0xed,0x77,0xbd,0x44,0x00,0x49,0xbe,0xc2,0x70,0x84,0xbe,0xd9,0xf0,0x38,0x3b,0xe2,0x3b,0x88,0x3e,0xd7,0x84,0x90,0xbd,0xb0,0xca,0xee,0x3d,0x96,0x68,0xd2,0x3d,0x39,0xcd,0x6f,0x3d,0x60,0x6c,0x3d,0x3e,0x34,0x60,0x8d,0x3d,0xbd,0xd2,0x97,0x3e,0xa7,0x03,0x1f,0x3e,0x98,0xa7,0xb0,0xbd,0xbf,0x9f,0x12,0x3e,0x90,0x7f,0x44,0xbd,0xda,0x1d,0x3f,0x3e,0x9e,0xae,0x4e,0xbe,0xf4,0x1b,0xc2,0x3d,0xd2,0x18,0x9d,0x3c,0x7b,0xf4,0x5d,0xbe,0xe7,0x13,0xd7,0xbd,0x2e,0xd3,0x06,0xbe,0x00,0x2d,0x3e,0x3c,0xa0,0x80,0xc1,0xbc,0xd5,0x4d,0xa2,0xbd,0x43,0x18,0x31,0x3d,0xa0,0xdc,0x83,0x3e,0x48,0x4e,0x93,0xbd,0x7f,0x29,0xf2,0x3d,0x86,0x95,0x93,0xbe,0x40,0x48,0x29,0xbc,0xfc,0x20,0xad,0x3e,0x8a,0xa6,0x12,0xbe,0xe8,0x09,0xd5,0x3d,0x8b,0x94,0x35,0x3e,0x58,0x61,0x0e,0x3d,0x32,0x6c,0x21,0x3c,0x00,0x37,0x9c,0x3d,0x34,0xee,0x42,0x3e,0x30,0x46,0xaf,0x3d,0xee,0x01,0xe8,0xbd,0x54,0xc2,0x41,0x3e,0x7e,0xf9,0xff,0xff,0x04,0x00,0x00,0x00,0xb0,0x04,0x00,0x00,0xc8,0x51,0xf2,0x39,0xd0,0x33,0x5f,0x3e,0x07,0xa7,0x21,0xbd,0xd5,0x28,0x15,0xbe,0xdf,0xc3,0xa9,0x3c,0x44,0x23,0x99,0xbe,0x77,0xd5,0x2a,0x3e,0xa0,0x93,0x92,0xbd,0xe4,0xda,0x2a,0xbe,0xfa,0x31,0x35,0x3e,0xd1,0xe0,0x21,0xbe,0x6a,0x8e,0x2f,0xbe,0xb8,0xf5,0xed,0xbd,0x02,0xf0,0x25,0x3e,0x1d,0xd2,0x15,0x3e,0x87,0x9f,0xdc,0x3d,0x23,0x99,0x85,0x3e,0xdb,0xb1,0xc3,0xbc,0x17,0xef,0xe2,0x3d,0xea,0x2b,0x91,0x3e,0x9a,0xc8,0xfa,0xbe,0xd7,0xbc,0xfd,0x3d,0x03,0xde,0xd4,0x3e,0xd1,0x45,0x53,0xbe,0x13,0x8f,0xc2,0x3e,0xb4,0x59,0x15,0x3e,0x07,0xf4,0x13,0xbe,0x52,0xdd,0xbf,0x3e,0x1a,0xcf,0x53,0xbe,0x77,0x58,0xa7,0x3d,0x88,0xea,0x82,0xbe,0x92,0x86,0x9a,0x3e,0xf3,0x34,0x9b,0xbe,0xf1,0x4c,0x84,0xbd,0xb2,0x86,0xf1,0xbd,0x5c,0x00,0x5b,0xbe,0xd7,0xf5,0x1e,0x3e,0xfc,0x9d,0x68,0x3d,0x17,0xe7,0x18,0x3e,0x3b,0x21,0xbe,0x3e,0xf4,0x30,0x97,0x3e,0x05,0x2b,0xa1,0x3e,0x00,0x6c,0xd9,0xb9,0xeb,0x5f,0x9d,0xbe,0xa4,0xd3,0x20,0x3e,0x80,0x7f,0x5a,0xbd,0xe0,0xe4,0x24,0xbd,0xa0,0x66,0x13,0xbc,0x1e,0x6e,0xdf,0xbd,0xfc,0x8a,0x83,0xbe,0xea,0x7e,0xa3,0x3e,0x7c,0x62,0x5c,0xbe,0x0c,0x5e,0xb9,0xbd,0x88,0x23,0xfb,0xbd,0xe3,0x5c,0x92,0x3c,0x8f,0xaf,0x3d,0x3e,0x3f,0x09,0x29,0x3e,0x5f,0x43,0x6f,0xbd,0xae,0x7f,0x17,0xbe,0xbe,0xae,0xe0,0xbd,0xef,0x86,0x66,0x3e,0x54,0x96,0x34,0xbe,0x23,0x36,0x29,0xbd,0x9e,0x9e,0xa3,0x3e,0x8b,0x71,0xb4,0x3e,0x81,0x7f,0x06,0xbe,0x58,0xc5,0x5f,0xbe,0x7c,0x9f,0x7e,0x3e,0x7e,0x0a,0x18,0x3e,0x28,0xff,0x86,0xbe,0xc8,0x75,0xdc,0x3d,0x5e,0x91,0xc6,0xbd,0x84,0xd5,0x02,0xbe,0xe0,0x00,0x48,0x3d,0x5f,0xec,0x9f,0x3e,0x7b,0xef,0x01,0xbd,0x29,0x07,0x40,0x3e,0x1b,0xf3,0xdc,0xbc,0xf8,0x40,0x68,0x3d,0xd0,0x1f,0x98,0x3e,0x28,0xe8,0x47,0x3d,0xde,0x72,0x0e,0xbe,0x4d,0x5a,0x9b,0xbe,0x4c,0x9a,0x20,0x3e,0x43,0xec,0x58,0xbe,0xa1,0xd4,0x24,0x3e,0xad,0x1a,0xdb,0x3e,0x01,0x67,0x64,0x3e,0x5d,0x13,0x1f,0xbe,0x79,0x12,0x2b,0x3e,0xb1,0x5c,0x65,0xbe,0x8b,0x1a,0x89,0xbe,0x1c,0xc2,0x0c,0xbe,0x54,0x5c,0x1e,0xbe,0xac,0x9c,0x7e,0x3e,0x4f,0x87,0x11,0x3e,0x64,0x15,0x27,0xbc,0x05,0xdb,0xa4,0xbe,0xc8,0xb9,0x94,0x3e,0x43,0x0b,0x22,0xbe,0x90,0xcf,0xe7,0xbc,0x12,0x0f,0x09,0xbe,0xeb,0xa1,0x8d,0xbe,0x9d,0xfa,0x9b,0xbe,0x68,0x75,0x48,0xbe,0x26,0x71,0x52,0x3e,0xdc,0x57,0x05,0xbc,0x3b,0x32,0x74,0xbe,0x01,0xe4,0x6c,0x3e,0x27,0x0c,0x1c,0xbe,0x17,0x9f,0x09,0x3f,0x6c,0x71,0x22,0xbe,0x34,0x5a,0x03,0x3e,0x1b,0x8f,0x42,0x3e,0xb6,0x7d,0x7c,0xbe,0x46,0x88,0xcd,0xbc,0xf5,0x50,0x04,0x3f,0x46,0x57,0xa6,0x3e,0x58,0x7f,0x02,0xbd,0x62,0xd8,0x3a,0x3e,0xac,0x51,0x8d,0x3e,0xd0,0x03,0x7f,0xbe,0x22,0x5e,0xa4,0x3d,0x1b,0x69,0x54,0x3d,0xa2,0x76,0x75,0x3d,0x2f,0xe2,0x62,0x3e,0x56,0xac,0x88,0x3e,0xae,0xae,0x37,0xbe,0x8a,0x3a,0xce,0x3d,0xd4,0xc8,0x32,0x3e,0xc9,0x6f,0x70,0xbc,0x87,0x2e,0x9a,0xbe,0xac,0xfe,0x44,0x3e,0x85,0x3b,0x9e,0x3d,0x74,0xa8,0x9c,0xbe,0x55,0x02,0x81,0xbe,0xf9,0x81,0x71,0xbe,0x59,0xf3,0xb9,0xbd,0xd8,0xa5,0x73,0x3d,0x59,0x50,0x36,0xbe,0x20,0xfa,0xa5,0xbc,0x20,0x12,0x12,0xbc,0xc0,0x63,0x90,0xbd,0x20,0xcf,0xaa,0xbc,0xcd,0x15,0x2a,0x3e,0x16,0x82,0xae,0x3d,0x12,0xda,0xc4,0xbe,0x30,0x6f,0xa2,0x3e,0x0a,0x8f,0x09,0x3e,0x69,0x99,0xfc,0xbd,0xa9,0xec,0x56,0xbe,0x00,0x3c,0xa5,0x3e,0x3a,0xbe,0x8f,0xbe,0xc9,0x56,0x37,0x3e,0x3f,0x1f,0xb8,0xbe,0x43,0xc5,0x08,0x3e,0x4c,0xac,0xd3,0x3d,0x04,0x5d,0x9c,0x3d,0xc3,0xc2,0x42,0xbe,0xef,0xf9,0x18,0x3d,0x62,0xbe,0x36,0x3e,0xb9,0x19,0x38,0xbd,0x92,0xc3,0x26,0xbd,0x0b,0xac,0x7b,0x3d,0x75,0xab,0x9e,0xbc,0x73,0x2d,0xc0,0xbd,0xd7,0x57,0xe4,0x3d,0xa9,0x17,0x2a,0xbe,0xbc,0x1a,0xc6,0x3e,0x39,0xd1,0xce,0x3e,0xfb,0x9c,0xe9,0xbe,0xfe,0xf9,0x8b,0x3e,0x71,0x42,0x08,0xbd,0xb0,0x44,0xc2,0xbd,0x6a,0x07,0x78,0xbd,0x3b,0x88,0x79,0xbe,0x09,0x53,0xbd,0x3e,0xf5,0x6c,0x43,0x3e,0x01,0x48,0xd7,0x3d,0xd1,0x3a,0x08,0xbd,0x5e,0x91,0x52,0xbe,0xb1,0x0f,0x1c,0xbe,0xdc,0xde,0x38,0x3e,0x58,0x82,0xba,0xbd,0x74,0xc0,0x6e,0xbe,0xf8,0x7c,0x99,0x3d,0xf1,0x2f,0x8f,0xbe,0x0e,0x43,0x83,0xbe,0x54,0x05,0xdb,0xbd,0xd6,0x93,0xf2,0xbd,0xb8,0xe7,0x22,0x3d,0x10,0xc1,0x9b,0xbe,0x82,0x8d,0x97,0x3e,0xd6,0x7a,0x5a,0x3e,0x13,0xf7,0xa7,0xbe,0x8e,0xc2,0xce,0x3d,0x32,0x60,0x1e,0xbe,0x27,0x90,0xa0,0x3e,0x0f,0x38,0x20,0x3e,0xb8,0xa1,0x12,0xbe,0xd7,0xee,0xd2,0x3e,0x93,0x36,0x58,0xbb,0xc8,0x31,0x07,0x3d,0xda,0xef,0x54,0xbd,0xa8,0x0d,0x80,0xbe,0x29,0x38,0x47,0xbe,0x14,0x43,0xaf,0x3e,0xd5,0x81,0x2e,0x3e,0xc8,0xf2,0xe2,0x3d,0x0f,0x0a,0x4c,0x3e,0x4c,0xbc,0x91,0x3e,0xfe,0xba,0xa7,0x3d,0xfc,0x13,0x04,0xbe,0xac,0xfb,0x85,0xbd,0xf5,0x2e,0x00,0x3e,0x09,0x92,0x2d,0xbe,0xd1,0x36,0x7d,0x3e,0xc3,0xaa,0xcd,0x3c,0x11,0xae,0x93,0xbc,0xe3,0xaf,0x7e,0xbe,0xc6,0xd4,0x80,0x3e,0xd9,0x38,0x66,0xbe,0x64,0xfd,0x99,0xbe,0x90,0x03,0xb8,0x3c,0x9c,0x2b,0x35,0x3e,0x40,0x36,0x23,0xbc,0x30,0x44,0x7a,0x3d,0xe2,0xb5,0xa0,0xbe,0xe2,0x32,0x6c,0xbe,0x5d,0x20,0x8f,0xbe,0x20,0x84,0x89,0xbd,0xb8,0x61,0xad,0x3d,0x50,0x06,0x89,0xbc,0x90,0x70,0x3b,0xbd,0xde,0x1f,0x43,0xbe,0x77,0x6f,0x4b,0x3e,0xa1,0x8f,0xe7,0x3e,0x91,0x42,0x1d,0xbe,0x21,0x5a,0x9f,0x3e,0x88,0xf7,0x33,0x3e,0x85,0x41,0xc7,0x3e,0xdf,0x1f,0x96,0x3e,0x44,0x2f,0x20,0xbe,0xb9,0xc8,0x83,0xbe,0xde,0x7e,0xbb,0x3e,0x28,0x2d,0x5e,0xbe,0xe8,0x00,0x77,0xbd,0xfe,0x5e,0x4d,0xbe,0xe0,0xcd,0xe3,0x3c,0x0b,0x4b,0x03,0xbe,0xcc,0x52,0x9b,0xbd,0x25,0x09,0x14,0xbe,0x52,0xf2,0x04,0xbe,0xf2,0xc6,0xb8,0x3e,0x51,0xdd,0xc9,0x3e,0xc5,0xa9,0x29,0x3e,0xe1,0x56,0xa0,0x3e,0x26,0x7a,0x4a,0xbe,0x84,0x07,0x55,0xbe,0xff,0x0a,0x3c,0xbe,0xac,0x66,0x99,0xbd,0x4c,0x8d,0x36,0x3e,0xa8,0xe5,0x6e,0xbd,0x7c,0x02,0x97,0x3d,0xa2,0xfe,0x71,0x3e,0x9b,0xa1,0xb3,0x3e,0xdc,0xf6,0x92,0xbd,0x72,0x3e,0x17,0xbd,0x6d,0xaf,0xa6,0x3e,0xe1,0xd1,0x86,0xbd,0xac,0x8e,0xb7,0x3d,0x40,0x60,0x73,0xbe,0x70,0x08,0xcc,0x3d,0x7a,0x3f,0xb5,0xbd,0x18,0x3a,0x90,0xbd,0x00,0xd8,0x82,0x3b,0x88,0x39,0x2a,0xbd,0x56,0x92,0x74,0x3e,0x64,0xea,0xbe,0xbe,0x0c,0x96,0xa8,0x3e,0x46,0xf3,0x80,0xbe,0x2b,0xb0,0xa8,0xbe,0xdc,0xb7,0x87,0xbd,0x87,0x49,0xa2,0xbe,0xf2,0xa5,0x13,0xbe,0x05,0xb7,0x1c,0xbe,0x2a,0x39,0xf6,0xbd,0x6c,0x3c,0x59,0xbe,0x46,0x14,0x8f,0xbd,0x9d,0xef,0xbb,0x3e,0x14,0x10,0x9d,0x3e,0x52,0x14,0x31,0x3e,0x96,0xab,0x21,0x3e,0xdb,0xca,0xbc,0x3e,0x4a,0x2c,0x64,0xbe,0x08,0xfa,0xb3,0x3d,0xd8,0x98,0x8f,0x3d,0xc1,0x87,0xa5,0xbe,0x9c,0x56,0x9f,0x3d,0x14,0xd8,0x14,0x3e,0x3a,0xfe,0xff,0xff,0x04,0x00,0x00,0x00,0xc8,0x00,0x00,0x00,0xcb,0x3f,0x7f,0xbc,0x11,0xac,0x41,0xbd,0xbf,0xae,0x55,0x3d,0xa1,0xfc,0xed,0x3d,0x72,0xd6,0x86,0x3d,0x72,0xa5,0x8d,0xbc,0xcc,0x3a,0x86,0x3d,0x00,0x00,0x00,0x00,0x00,0x00,0x00,0x00,0x56,0x63,0x7a,0xbd,0x92,0x92,0xc6,0x3d,0x00,0x00,0x00,0x00,0x40,0x47,0xb0,0x3b,0x00,0x00,0x00,0x00,0xc0,0x88,0xb8,0x3d,0x0c,0x71,0x5b,0x3d,0x84,0xfe,0x4e,0xbb,0xc4,0x79,0x27,0xbd,0x55,0xd5,0x31,0x3c,0xc7,0x18,0x0e,0x3d,0xb8,0x57,0xfd,0x3b,0x8a,0x52,0x83,0xbc,0x88,0x87,0x5a,0xbc,0x00,0x00,0x00,0x00,0x19,0x9f,0x52,0x3d,0x5b,0x70,0x56,0x3d,0x2a,0x17,0x9e,0x3c,0x6b,0x34,0x3e,0xbd,0xf0,0x45,0xf5,0x3d,0x48,0x69,0x4c,0x3c,0x00,0x00,0x00,0x00,0x00,0x00,0x00,0x00,0xe7,0x64,0x46,0x3d,0x32,0x3c,0x3b,0x3d,0x5f,0xe0,0xa6,0x3d,0x22,0x26,0x6a,0x3d,0x1c,0xca,0x75,0x3d,0x00,0x00,0x00,0x00,0x00,0x00,0x00,0x00,0xa9,0x8e,0xc5,0x3d,0x08,0xbd,0xe1,0x3c,0x00,0x00,0x00,0x00,0x00,0x76,0x57,0x3d,0x00,0x00,0x00,0x00,0x30,0x4c,0x0b,0x3e,0x00,0x00,0x00,0x00,0x5e,0xf8,0xb8,0x3d,0x00,0x00,0x00,0x00,0x1a,0x34,0xb2,0x3d,0x00,0x00,0x00,0x00,0x0e,0xff,0xff,0xff,0x04,0x00,0x00,0x00,0x08,0x00,0x00,0x00,0x06,0x83,0xf9,0xbb,0xe0,0x82,0xf9,0x3b,0x22,0xff,0xff,0xff,0x04,0x00,0x00,0x00,0x3c,0x00,0x00,0x00,0x00,0x00,0x00,0x00,0x94,0xf3,0xe3,0x3c,0x33,0xe4,0x93,0x3c,0x7f,0x93,0x39,0x3c,0x00,0x00,0x00,0x00,0xa1,0x2f,0x78,0x3d,0x82,0x2f,0x71,0x3d,0x67,0xd1,0xd8,0x3d,0x01,0x10,0xcc,0x3d,0x13,0x15,0xe4,0x3c,0x3f,0xf3,0xda,0x3d,0xdf,0x63,0x66,0xbc,0x00,0x00,0x00,0x00,0x93,0x82,0x23,0x3c,0x9f,0x50,0x4b,0x3d,0x5c,0xfa,0xff,0xff,0x60,0xfa,0xff,0xff,0x0f,0x00,0x00,0x00,0x4d,0x4c,0x49,0x52,0x20,0x43,0x6f,0x6e,0x76,0x65,0x72,0x74,0x65,0x64,0x2e,0x00,0x01,0x00,0x00,0x00,0x14,0x00,0x00,0x00,0x00,0x00,0x0e,0x00,0x18,0x00,0x14,0x00,0x10,0x00,0x0c,0x00,0x08,0x00,0x04,0x00,0x0e,0x00,0x00,0x00,0x14,0x00,0x00,0x00,0x1c,0x00,0x00,0x00,0x24,0x01,0x00,0x00,0x28,0x01,0x00,0x00,0x2c,0x01,0x00,0x00,0x04,0x00,0x00,0x00,0x6d,0x61,0x69,0x6e,0x00,0x00,0x00,0x00,0x04,0x00,0x00,0x00,0xcc,0x00,0x00,0x00,0x84,0x00,0x00,0x00,0x50,0x00,0x00,0x00,0x14,0x00,0x00,0x00,0x00,0x00,0x0e,0x00,0x1a,0x00,0x14,0x00,0x10,0x00,0x0c,0x00,0x0b,0x00,0x04,0x00,0x0e,0x00,0x00,0x00,0x1c,0x00,0x00,0x00,0x00,0x00,0x00,0x09,0x1c,0x00,0x00,0x00,0x20,0x00,0x00,0x00,0x01,0x00,0x00,0x00,0x00,0x00,0x06,0x00,0x08,0x00,0x04,0x00,0x06,0x00,0x00,0x00,0x00,0x00,0x80,0x3f,0x01,0x00,0x00,0x00,0x0a,0x00,0x00,0x00,0x01,0x00,0x00,0x00,0x09,0x00,0x00,0x00,0x9a,0xff,0xff,0xff,0x10,0x00,0x00,0x00,0x00,0x00,0x00,0x08,0x0c,0x00,0x00,0x00,0x10,0x00,0x00,0x00,0x24,0xfb,0xff,0xff,0x01,0x00,0x00,0x00,0x09,0x00,0x00,0x00,0x03,0x00,0x00,0x00,0x08,0x00,0x00,0x00,0x06,0x00,0x00,0x00,0x02,0x00,0x00,0x00,0xca,0xff,0xff,0xff,0x10,0x00,0x00,0x00,0x00,0x00,0x00,0x08,0x10,0x00,0x00,0x00,0x14,0x00,0x00,0x00,0xba,0xff,0xff,0xff,0x00,0x00,0x00,0x01,0x01,0x00,0x00,0x00,0x08,0x00,0x00,0x00,0x03,0x00,0x00,0x00,0x07,0x00,0x00,0x00,0x05,0x00,0x00,0x00,0x01,0x00,0x00,0x00,0x00,0x00,0x0e,0x00,0x16,0x00,0x00,0x00,0x10,0x00,0x0c,0x00,0x0b,0x00,0x04,0x00,0x0e,0x00,0x00,0x00,0x18,0x00,0x00,0x00,0x00,0x00,0x00,0x08,0x18,0x00,0x00,0x00,0x1c,0x00,0x00,0x00,0x00,0x00,0x06,0x00,0x08,0x00,0x07,0x00,0x06,0x00,0x00,0x00,0x00,0x00,0x00,0x01,0x01,0x00,0x00,0x00,0x07,0x00,0x00,0x00,0x03,0x00,0x00,0x00,0x00,0x00,0x00,0x00,0x04,0x00,0x00,0x00,0x03,0x00,0x00,0x00,0x01,0x00,0x00,0x00,0x0a,0x00,0x00,0x00,0x01,0x00,0x00,0x00,0x00,0x00,0x00,0x00,0x0b,0x00,0x00,0x00,0x04,0x04,0x00,0x00,0x94,0x03,0x00,0x00,0x24,0x03,0x00,0x00,0xd0,0x02,0x00,0x00,0x88,0x02,0x00,0x00,0x3c,0x02,0x00,0x00,0xf0,0x01,0x00,0x00,0x68,0x01,0x00,0x00,0xd8,0x00,0x00,0x00,0x60,0x00,0x00,0x00,0x04,0x00,0x00,0x00,0x3e,0xfc,0xff,0xff,0x00,0x00,0x00,0x01,0x14,0x00,0x00,0x00,0x1c,0x00,0x00,0x00,0x1c,0x00,0x00,0x00,0x0b,0x00,0x00,0x00,0x34,0x00,0x00,0x00,0x02,0x00,0x00,0x00,0xff,0xff,0xff,0xff,0x02,0x00,0x00,0x00,0x28,0xfc,0xff,0xff,0x19,0x00,0x00,0x00,0x53,0x74,0x61,0x74,0x65,0x66,0x75,0x6c,0x50,0x61,0x72,0x74,0x69,0x74,0x69,0x6f,0x6e,0x65,0x64,0x43,0x61,0x6c,0x6c,0x3a,0x30,0x00,0x00,0x00,0x02,0x00,0x00,0x00,0x01,0x00,0x00,0x00,0x02,0x00,0x00,0x00,0x96,0xfc,0xff,0xff,0x00,0x00,0x00,0x01,0x14,0x00,0x00,0x00,0x1c,0x00,0x00,0x00,0x1c,0x00,0x00,0x00,0x0a,0x00,0x00,0x00,0x50,0x00,0x00,0x00,0x02,0x00,0x00,0x00,0xff,0xff,0xff,0xff,0x02,0x00,0x00,0x00,0x80,0xfc,0xff,0xff,0x34,0x00,0x00,0x00,0x73,0x65,0x71,0x75,0x65,0x6e,0x74,0x69,0x61,0x6c,0x2f,0x64,0x65,0x6e,0x73,0x65,0x5f,0x32,0x2f,0x4d,0x61,0x74,0x4d,0x75,0x6c,0x3b,0x73,0x65,0x71,0x75,0x65,0x6e,0x74,0x69,0x61,0x6c,0x2f,0x64,0x65,0x6e,0x73,0x65,0x5f,0x32,0x2f,0x42,0x69,0x61,0x73,0x41,0x64,0x64,0x00,0x00,0x00,0x00,0x02,0x00,0x00,0x00,0x01,0x00,0x00,0x00,0x02,0x00,0x00,0x00,0x0a,0xfd,0xff,0xff,0x00,0x00,0x00,0x01,0x14,0x00,0x00,0x00,0x1c,0x00,0x00,0x00,0x1c,0x00,0x00,0x00,0x09,0x00,0x00,0x00,0x68,0x00,0x00,0x00,0x02,0x00,0x00,0x00,0xff,0xff,0xff,0xff,0x0f,0x00,0x00,0x00,0xf4,0xfc,0xff,0xff,0x4c,0x00,0x00,0x00,0x73,0x65,0x71,0x75,0x65,0x6e,0x74,0x69,0x61,0x6c,0x2f,0x64,0x65,0x6e,0x73,0x65,0x5f,0x31,0x2f,0x4d,0x61,0x74,0x4d,0x75,0x6c,0x3b,0x73,0x65,0x71,0x75,0x65,0x6e,0x74,0x69,0x61,0x6c,0x2f,0x64,0x65,0x6e,0x73,0x65,0x5f,0x31,0x2f,0x52,0x65,0x6c,0x75,0x3b,0x73,0x65,0x71,0x75,0x65,0x6e,0x74,0x69,0x61,0x6c,0x2f,0x64,0x65,0x6e,0x73,0x65,0x5f,0x31,0x2f,0x42,0x69,0x61,0x73,0x41,0x64,0x64,0x00,0x00,0x00,0x00,0x02,0x00,0x00,0x00,0x01,0x00,0x00,0x00,0x0f,0x00,0x00,0x00,0x96,0xfd,0xff,0xff,0x00,0x00,0x00,0x01,0x14,0x00,0x00,0x00,0x1c,0x00,0x00,0x00,0x1c,0x00,0x00,0x00,0x08,0x00,0x00,0x00,0x60,0x00,0x00,0x00,0x02,0x00,0x00,0x00,0xff,0xff,0xff,0xff,0x32,0x00,0x00,0x00,0x80,0xfd,0xff,0xff,0x46,0x00,0x00,0x00,0x73,0x65,0x71,0x75,0x65,0x6e,0x74,0x69,0x61,0x6c,0x2f,0x64,0x65,0x6e,0x73,0x65,0x2f,0x4d,0x61,0x74,0x4d,0x75,0x6c,0x3b,0x73,0x65,0x71,0x75,0x65,0x6e,0x74,0x69,0x61,0x6c,0x2f,0x64,0x65,0x6e,0x73,0x65,0x2f,0x52,0x65,0x6c,0x75,0x3b,0x73,0x65,0x71,0x75,0x65,0x6e,0x74,0x69,0x61,0x6c,0x2f,0x64,0x65,0x6e,0x73,0x65,0x2f,0x42,0x69,0x61,0x73,0x41,0x64,0x64,0x00,0x00,0x02,0x00,0x00,0x00,0x01,0x00,0x00,0x00,0x32,0x00,0x00,0x00,0x86,0xfe,0xff,0xff,0x00,0x00,0x00,0x01,0x10,0x00,0x00,0x00,0x10,0x00,0x00,0x00,0x07,0x00,0x00,0x00,0x28,0x00,0x00,0x00,0xf4,0xfd,0xff,0xff,0x19,0x00,0x00,0x00,0x73,0x65,0x71,0x75,0x65,0x6e,0x74,0x69,0x61,0x6c,0x2f,0x64,0x65,0x6e,0x73,0x65,0x5f,0x32,0x2f,0x4d,0x61,0x74,0x4d,0x75,0x6c,0x00,0x00,0x00,0x02,0x00,0x00,0x00,0x02,0x00,0x00,0x00,0x0f,0x00,0x00,0x00,0xce,0xfe,0xff,0xff,0x00,0x00,0x00,0x01,0x10,0x00,0x00,0x00,0x10,0x00,0x00,0x00,0x06,0x00,0x00,0x00,0x28,0x00,0x00,0x00,0x3c,0xfe,0xff,0xff,0x19,0x00,0x00,0x00,0x73,0x65,0x71,0x75,0x65,0x6e,0x74,0x69,0x61,0x6c,0x2f,0x64,0x65,0x6e,0x73,0x65,0x5f,0x31,0x2f,0x4d,0x61,0x74,0x4d,0x75,0x6c,0x00,0x00,0x00,0x02,0x00,0x00,0x00,0x0f,0x00,0x00,0x00,0x32,0x00,0x00,0x00,0x16,0xff,0xff,0xff,0x00,0x00,0x00,0x01,0x10,0x00,0x00,0x00,0x10,0x00,0x00,0x00,0x05,0x00,0x00,0x00,0x24,0x00,0x00,0x00,0x84,0xfe,0xff,0xff,0x17,0x00,0x00,0x00,0x73,0x65,0x71,0x75,0x65,0x6e,0x74,0x69,0x61,0x6c,0x2f,0x64,0x65,0x6e,0x73,0x65,0x2f,0x4d,0x61,0x74,0x4d,0x75,0x6c,0x00,0x02,0x00,0x00,0x00,0x32,0x00,0x00,0x00,0x06,0x00,0x00,0x00,0x5a,0xff,0xff,0xff,0x00,0x00,0x00,0x01,0x10,0x00,0x00,0x00,0x10,0x00,0x00,0x00,0x04,0x00,0x00,0x00,0x34,0x00,0x00,0x00,0xc8,0xfe,0xff,0xff,0x27,0x00,0x00,0x00,0x73,0x65,0x71,0x75,0x65,0x6e,0x74,0x69,0x61,0x6c,0x2f,0x64,0x65,0x6e,0x73,0x65,0x2f,0x42,0x69,0x61,0x73,0x41,0x64,0x64,0x2f,0x52,0x65,0x61,0x64,0x56,0x61,0x72,0x69,0x61,0x62,0x6c,0x65,0x4f,0x70,0x00,0x01,0x00,0x00,0x00,0x32,0x00,0x00,0x00,0xaa,0xff,0xff,0xff,0x00,0x00,0x00,0x01,0x10,0x00,0x00,0x00,0x10,0x00,0x00,0x00,0x03,0x00,0x00,0x00,0x38,0x00,0x00,0x00,0x18,0xff,0xff,0xff,0x29,0x00,0x00,0x00,0x73,0x65,0x71,0x75,0x65,0x6e,0x74,0x69,0x61,0x6c,0x2f,0x64,0x65,0x6e,0x73,0x65,0x5f,0x32,0x2f,0x42,0x69,0x61,0x73,0x41,0x64,0x64,0x2f,0x52,0x65,0x61,0x64,0x56,0x61,0x72,0x69,0x61,0x62,0x6c,0x65,0x4f,0x70,0x00,0x00,0x00,0x01,0x00,0x00,0x00,0x02,0x00,0x00,0x00,0x00,0x00,0x16,0x00,0x18,0x00,0x14,0x00,0x00,0x00,0x10,0x00,0x0c,0x00,0x08,0x00,0x00,0x00,0x00,0x00,0x00,0x00,0x07,0x00,0x16,0x00,0x00,0x00,0x00,0x00,0x00,0x01,0x10,0x00,0x00,0x00,0x10,0x00,0x00,0x00,0x02,0x00,0x00,0x00,0x38,0x00,0x00,0x00,0x84,0xff,0xff,0xff,0x29,0x00,0x00,0x00,0x73,0x65,0x71,0x75,0x65,0x6e,0x74,0x69,0x61,0x6c,0x2f,0x64,0x65,0x6e,0x73,0x65,0x5f,0x31,0x2f,0x42,0x69,0x61,0x73,0x41,0x64,0x64,0x2f,0x52,0x65,0x61,0x64,0x56,0x61,0x72,0x69,0x61,0x62,0x6c,0x65,0x4f,0x70,0x00,0x00,0x00,0x01,0x00,0x00,0x00,0x0f,0x00,0x00,0x00,0x00,0x00,0x16,0x00,0x1c,0x00,0x18,0x00,0x00,0x00,0x14,0x00,0x10,0x00,0x0c,0x00,0x00,0x00,0x00,0x00,0x08,0x00,0x07,0x00,0x16,0x00,0x00,0x00,0x00,0x00,0x00,0x01,0x14,0x00,0x00,0x00,0x20,0x00,0x00,0x00,0x20,0x00,0x00,0x00,0x01,0x00,0x00,0x00,0x3c,0x00,0x00,0x00,0x02,0x00,0x00,0x00,0xff,0xff,0xff,0xff,0x06,0x00,0x00,0x00,0x04,0x00,0x04,0x00,0x04,0x00,0x00,0x00,0x1d,0x00,0x00,0x00,0x73,0x65,0x72,0x76,0x69,0x6e,0x67,0x5f,0x64,0x65,0x66,0x61,0x75,0x6c,0x74,0x5f,0x64,0x65,0x6e,0x73,0x65,0x5f,0x69,0x6e,0x70,0x75,0x74,0x3a,0x30,0x00,0x00,0x00,0x02,0x00,0x00,0x00,0x01,0x00,0x00,0x00,0x06,0x00,0x00,0x00,0x02,0x00,0x00,0x00,0x20,0x00,0x00,0x00,0x04,0x00,0x00,0x00,0xf4,0xff,0xff,0xff,0x19,0x00,0x00,0x00,0x00,0x00,0x00,0x19,0x0c,0x00,0x0c,0x00,0x0b,0x00,0x00,0x00,0x00,0x00,0x04,0x00,0x0c,0x00,0x00,0x00,0x09,0x00,0x00,0x00,0x00,0x00,0x00,0x09};