unsigned char model[]={0x1c,0x00,0x00,0x00,0x54,0x46,0x4c,0x33,0x14,0x00,0x20,0x00,0x1c,0x00,0x18,0x00,0x14,0x00,0x10,0x00,0x0c,0x00,0x00,0x00,0x08,0x00,0x04,0x00,0x14,0x00,0x00,0x00,0x1c,0x00,0x00,0x00,0x90,0x00,0x00,0x00,0xe8,0x00,0x00,0x00,0xec,0x13,0x00,0x00,0xfc,0x13,0x00,0x00,0xb8,0x19,0x00,0x00,0x03,0x00,0x00,0x00,0x01,0x00,0x00,0x00,0x10,0x00,0x00,0x00,0x00,0x00,0x0a,0x00,0x10,0x00,0x0c,0x00,0x08,0x00,0x04,0x00,0x0a,0x00,0x00,0x00,0x0c,0x00,0x00,0x00,0x1c,0x00,0x00,0x00,0x38,0x00,0x00,0x00,0x0f,0x00,0x00,0x00,0x73,0x65,0x72,0x76,0x69,0x6e,0x67,0x5f,0x64,0x65,0x66,0x61,0x75,0x6c,0x74,0x00,0x01,0x00,0x00,0x00,0x04,0x00,0x00,0x00,0x98,0xff,0xff,0xff,0x0a,0x00,0x00,0x00,0x04,0x00,0x00,0x00,0x07,0x00,0x00,0x00,0x64,0x65,0x6e,0x73,0x65,0x5f,0x32,0x00,0x01,0x00,0x00,0x00,0x04,0x00,0x00,0x00,0xf6,0xeb,0xff,0xff,0x04,0x00,0x00,0x00,0x0b,0x00,0x00,0x00,0x64,0x65,0x6e,0x73,0x65,0x5f,0x69,0x6e,0x70,0x75,0x74,0x00,0x02,0x00,0x00,0x00,0x34,0x00,0x00,0x00,0x04,0x00,0x00,0x00,0xdc,0xff,0xff,0xff,0x0d,0x00,0x00,0x00,0x04,0x00,0x00,0x00,0x13,0x00,0x00,0x00,0x43,0x4f,0x4e,0x56,0x45,0x52,0x53,0x49,0x4f,0x4e,0x5f,0x4d,0x45,0x54,0x41,0x44,0x41,0x54,0x41,0x00,0x08,0x00,0x0c,0x00,0x08,0x00,0x04,0x00,0x08,0x00,0x00,0x00,0x0c,0x00,0x00,0x00,0x04,0x00,0x00,0x00,0x13,0x00,0x00,0x00,0x6d,0x69,0x6e,0x5f,0x72,0x75,0x6e,0x74,0x69,0x6d,0x65,0x5f,0x76,0x65,0x72,0x73,0x69,0x6f,0x6e,0x00,0x0e,0x00,0x00,0x00,0x00,0x13,0x00,0x00,0xf8,0x12,0x00,0x00,0xac,0x12,0x00,0x00,0x94,0x12,0x00,0x00,0xbc,0x11,0x00,0x00,0xfc,0x0c,0x00,0x00,0x34,0x01,0x00,0x00,0xac,0x00,0x00,0x00,0xa4,0x00,0x00,0x00,0x9c,0x00,0x00,0x00,0x94,0x00,0x00,0x00,0x8c,0x00,0x00,0x00,0x6c,0x00,0x00,0x00,0x04,0x00,0x00,0x00,0xa6,0xec,0xff,0xff,0x04,0x00,0x00,0x00,0x58,0x00,0x00,0x00,0x0c,0x00,0x00,0x00,0x08,0x00,0x0e,0x00,0x08,0x00,0x04,0x00,0x08,0x00,0x00,0x00,0x10,0x00,0x00,0x00,0x28,0x00,0x00,0x00,0x00,0x00,0x06,0x00,0x08,0x00,0x04,0x00,0x06,0x00,0x00,0x00,0x04,0x00,0x00,0x00,0x01,0x00,0x00,0x00,0xea,0x03,0x00,0x00,0x00,0x00,0x0a,0x00,0x10,0x00,0x0c,0x00,0x08,0x00,0x04,0x00,0x0a,0x00,0x00,0x00,0x02,0x00,0x00,0x00,0x02,0x00,0x00,0x00,0x04,0x00,0x00,0x00,0x06,0x00,0x00,0x00,0x32,0x2e,0x31,0x31,0x2e,0x30,0x00,0x00,0x0a,0xed,0xff,0xff,0x04,0x00,0x00,0x00,0x10,0x00,0x00,0x00,0x31,0x2e,0x35,0x2e,0x30,0x00,0x00,0x00,0x00,0x00,0x00,0x00,0x00,0x00,0x00,0x00,0x18,0xe8,0xff,0xff,0x1c,0xe8,0xff,0xff,0x20,0xe8,0xff,0xff,0x24,0xe8,0xff,0xff,0x36,0xed,0xff,0xff,0x04,0x00,0x00,0x00,0x78,0x00,0x00,0x00,0xba,0x27,0x44,0xbf,0x7f,0x67,0x53,0xbe,0x8d,0x27,0x09,0x3f,0x58,0x9f,0xa6,0xbd,0x0d,0x10,0x8c,0x3e,0x17,0x2a,0xc8,0xbe,0xd8,0x86,0x70,0xbe,0xca,0x9e,0x9a,0xbe,0x9f,0xdf,0x17,0x3f,0x4d,0x0f,0xcc,0xbe,0x96,0x86,0x87,0x3e,0xb5,0xe2,0x2d,0x3e,0xda,0x93,0x04,0xbf,0xce,0x89,0x99,0xbe,0x2c,0xeb,0xfb,0x3e,0xb0,0x53,0x67,0x3e,0x7b,0x1b,0x39,0x3f,0x76,0x59,0xe9,0xbd,0xb6,0x51,0x91,0x3e,0x2c,0xbd,0x08,0x3f,0x22,0x86,0xa6,0xbe,0x08,0x31,0x38,0x3f,0xeb,0x54,0x1c,0xbf,0xc3,0x68,0x0e,0xbf,0xf3,0x37,0x20,0xbf,0x07,0x5e,0x75,0xbe,0x50,0x05,0x9f,0xbe,0x6a,0xd7,0xfc,0x3e,0xec,0xd3,0x39,0x3e,0xe2,0x10,0x92,0x3e,0xba,0xed,0xff,0xff,0x04,0x00,0x00,0x00,0xb8,0x0b,0x00,0x00,0x63,0x3b,0x52,0xbd,0xcc,0x42,0x86,0xbe,0x3c,0x6d,0x34,0xbe,0x1d,0x54,0x96,0x3e,0xeb,0x5c,0x23,0xbe,0x29,0x58,0x30,0x3e,0xe4,0x53,0xfd,0x3c,0x69,0x81,0x75,0xbe,0xa7,0x18,0x96,0x3e,0xaf,0x37,0x36,0xbe,0x1d,0x00,0x27,0xbe,0xcd,0xa5,0x03,0x3e,0x3a,0x25,0xc7,0x3d,0x1d,0x36,0x96,0xbe,0x8f,0xa7,0x55,0xbe,0xcc,0x7a,0x89,0x3e,0x50,0xb5,0x98,0x3d,0xb0,0x8c,0x19,0x3d,0x62,0xb7,0xa8,0x3e,0xe0,0x29,0x0b,0x3e,0xbd,0xd3,0x91,0x3e,0x7c,0x73,0x83,0x3d,0x25,0x60,0xe8,0xbd,0xc8,0x02,0x98,0x3e,0x41,0x10,0x17,0xbe,0x52,0x3f,0xab,0xbe,0xe0,0x46,0x01,0x3e,0xbc,0xf6,0xa1,0x3e,0xc9,0xd9,0xb0,0x3d,0x3d,0xb4,0x0a,0xbe,0xaf,0x4a,0x22,0xbe,0xd1,0x7c,0x59,0x3e,0x9a,0xd2,0xc6,0xbd,0x20,0x9a,0x83,0x3e,0xd0,0x21,0xb9,0xbc,0x1d,0x68,0x80,0xbe,0x4d,0xb8,0x1f,0x3e,0x11,0xf5,0x8d,0x3e,0x0e,0x32,0xb0,0xbd,0x6a,0x99,0xef,0x3d,0x55,0x0a,0x7e,0xbe,0x47,0xc0,0x12,0xbe,0x78,0x45,0xee,0x3d,0x59,0x71,0xe1,0xbd,0x42,0x91,0xe0,0x3e,0xfe,0x0c,0xbd,0xbd,0x04,0x30,0x7d,0x3b,0x5c,0xb8,0x60,0x3d,0x89,0xab,0xa6,0xbe,0x58,0x42,0x65,0x3e,0x6a,0x0b,0x34,0xbe,0x83,0x59,0xdf,0xbd,0x04,0x5a,0x2e,0x3d,0xcc,0xb7,0xce,0x3d,0xc0,0xb3,0xb8,0x3b,0x62,0xc5,0x63,0x3e,0x8f,0x88,0xfb,0xbd,0x95,0xeb,0xa1,0xbe,0x3f,0xc8,0x4f,0x3e,0x95,0x37,0x84,0x3d,0x27,0x51,0x9e,0x3e,0x7d,0x39,0x95,0xbe,0x44,0xbc,0x24,0x3d,0x03,0xba,0x2b,0x3e,0x9f,0xfa,0x47,0xbe,0xcc,0x07,0x71,0x3e,0xa1,0x5a,0x2e,0xbe,0x3a,0xd7,0x2d,0x3e,0xc9,0x66,0xb2,0x3d,0xc0,0xd6,0xa2,0x3d,0x8c,0xf8,0x7b,0x3e,0xb5,0x29,0x5f,0xbe,0xd8,0x33,0x99,0x3e,0x64,0xc5,0x96,0xbe,0xac,0x1b,0x44,0xbd,0x0f,0xf8,0x42,0x3e,0x3f,0x7a,0x2d,0xbe,0xea,0xc7,0x41,0xbd,0x29,0x74,0xe2,0x3e,0x14,0xff,0x83,0xbe,0xe0,0xb5,0x61,0x3e,0x10,0x58,0x0f,0x3e,0x53,0x96,0x05,0xbe,0x94,0xbc,0x6b,0x3e,0x28,0x0a,0xbd,0x3e,0x20,0xc8,0x39,0xbd,0x49,0x13,0x5b,0xbe,0x7b,0x9f,0xaa,0x3e,0x88,0xad,0x47,0xbe,0x07,0xbe,0x62,0xbe,0x63,0xea,0x74,0x3e,0x86,0x63,0x94,0xbc,0xf2,0x4e,0xc0,0xbd,0x69,0x56,0x91,0xbe,0x84,0xf8,0xb9,0x3e,0x20,0x96,0x54,0x3e,0x39,0x5a,0xcb,0xbd,0x87,0xf7,0xaf,0x3e,0x4c,0xed,0x91,0xbc,0x43,0x35,0x80,0xbe,0x8a,0x9f,0x77,0x3e,0x47,0x87,0x0a,0xbd,0x4c,0xcb,0x4e,0x3e,0xde,0x13,0x3a,0xbe,0x30,0xb0,0x28,0x3e,0x43,0x79,0x3e,0xbe,0x99,0x15,0x3b,0x3e,0x07,0xa7,0x97,0x3e,0x1a,0xec,0xcc,0x3c,0x80,0x53,0x94,0x3e,0x5a,0x9d,0x7d,0xbd,0x79,0x45,0xc7,0x3e,0x84,0xb2,0x13,0x3d,0x6d,0x1b,0x86,0xbe,0x3a,0x4a,0x4b,0xbe,0x7c,0xd0,0xa7,0xbe,0x6e,0xb5,0x8b,0x3e,0x56,0x05,0xeb,0xbd,0xb6,0x11,0x1c,0xbe,0xf0,0x66,0x5a,0xbe,0xe3,0x99,0x6f,0x3e,0xe2,0x53,0x1c,0x3e,0x11,0x0b,0x51,0xbc,0x8c,0xa7,0x43,0x3e,0xf4,0x63,0xa4,0x3e,0xf0,0x6f,0x55,0x3e,0xe5,0xa6,0xf5,0x3d,0x07,0xc9,0x8d,0x3d,0xd5,0x5c,0x0e,0xbe,0xd7,0xac,0x8f,0x3d,0x80,0x02,0x3c,0xbe,0xeb,0xb7,0x20,0x3e,0xc8,0x20,0x84,0xbe,0x10,0x7a,0xff,0xbc,0x7b,0xb9,0x8a,0xbe,0xaa,0xe6,0x23,0x3e,0xc1,0x22,0xf8,0x3d,0xae,0xca,0x33,0xbe,0x05,0xd8,0xe2,0xbd,0x7d,0x1a,0x07,0x3e,0x11,0x5b,0x99,0x3e,0x74,0x1d,0xf7,0x3d,0x40,0x61,0x0e,0x3c,0x3f,0x35,0xb5,0xbc,0xf4,0xd6,0x52,0x3e,0x90,0xd0,0x66,0xbd,0x18,0xef,0xa2,0x3e,0xe9,0xbf,0x07,0xbe,0xd6,0xaf,0x9f,0x3c,0x92,0x86,0x59,0xbe,0x44,0x6c,0x51,0x3e,0x2e,0x32,0x4a,0xbe,0x3c,0x6f,0xf2,0xbd,0x4e,0x30,0x93,0xbe,0xb0,0xe5,0xe8,0xbd,0xed,0x14,0x16,0xbe,0x80,0x00,0x97,0x3d,0xf5,0xe9,0x8d,0xbe,0x3e,0x79,0x72,0xbe,0xe8,0x4a,0x00,0x3d,0xb0,0x0b,0x38,0xbd,0x1c,0xe8,0xf6,0x3d,0x44,0xa1,0x79,0x3e,0xa2,0x77,0x90,0x3e,0xa0,0x44,0x4d,0x3e,0x88,0xce,0xb5,0x3d,0xc4,0x8b,0xd6,0xbd,0xac,0x62,0x28,0x3e,0xd0,0xe6,0x88,0xbe,0x5c,0x9c,0x88,0xbd,0xd8,0xf8,0x58,0xbd,0xd2,0xd4,0x82,0x3e,0xb8,0xe5,0x37,0xbe,0x01,0x3f,0x6d,0xbe,0x40,0x25,0xa6,0xbb,0x4e,0x87,0xa3,0xbd,0x47,0x7a,0x80,0xbe,0x14,0x60,0x51,0x3e,0x4f,0xe8,0x2e,0xbe,0x7e,0xe1,0x4b,0xbe,0xd4,0xef,0x4e,0x3e,0xc5,0xdf,0x92,0xbe,0x2a,0xe1,0x83,0x3e,0xe3,0xb8,0x15,0xbe,0xfe,0x55,0x2b,0x3e,0x48,0xb5,0x2a,0xbd,0xe6,0xd9,0x14,0xbe,0xb8,0x34,0x97,0x3d,0x60,0xeb,0x22,0xbd,0x40,0x91,0x92,0x3c,0xfc,0x06,0x77,0xbd,0xd6,0x0c,0x8a,0x3e,0x68,0x5f,0x83,0x3d,0xd2,0x07,0x0a,0x3e,0x52,0x61,0x6b,0xbe,0x1c,0xa7,0x7d,0x3e,0xb2,0x93,0x3a,0x3e,0x1c,0x9b,0x52,0x3e,0x4f,0x34,0x59,0xbe,0xdc,0x35,0xd1,0xbd,0x10,0xcc,0xa1,0x3d,0x8e,0x46,0x06,0xbe,0x21,0xf7,0x77,0x3e,0xa4,0x3e,0x01,0x3d,0x26,0xaf,0xd4,0xbd,0x7c,0xef,0xd5,0x3d,0x97,0xcd,0x66,0xbe,0x94,0xf4,0xe6,0x3d,0xfc,0x93,0x98,0x3e,0x15,0xc9,0x84,0x3e,0x98,0x8c,0x33,0x3e,0x86,0xd5,0x4a,0xbe,0xf6,0x9e,0x9b,0x3a,0xb3,0x06,0x55,0xbe,0xf9,0xf7,0xec,0xbd,0x63,0xab,0x7e,0x3d,0x3e,0x16,0x97,0x3e,0x8a,0x09,0x04,0x3e,0x7e,0x9d,0xca,0x3e,0xce,0xee,0x8b,0xbe,0x13,0xe7,0x77,0x3d,0x32,0x94,0x85,0x3e,0x94,0xa3,0x6d,0x3e,0xe8,0x9e,0x19,0x3e,0x87,0x33,0xa1,0xbe,0xc9,0x24,0xab,0xbd,0x4c,0x51,0x3b,0x3e,0x12,0x9a,0x90,0xbe,0x78,0x61,0xbe,0xbd,0xbe,0xb4,0x8a,0x3d,0x5e,0xfa,0x8a,0xbd,0xa9,0x8c,0x45,0xbe,0x9b,0xe7,0x92,0xbe,0xaa,0xad,0x48,0x3e,0xa2,0x4b,0x54,0x3e,0xa0,0x95,0x98,0x3c,0x74,0x50,0xc8,0xbd,0x23,0x10,0x11,0xbe,0xd4,0x49,0xdb,0xbd,0x62,0xe1,0x5a,0x3d,0x0f,0x26,0x8d,0xbe,0x6c,0xde,0x87,0x3e,0xa8,0xdb,0x1c,0xbd,0xe5,0xca,0x0d,0xbe,0x8a,0x7a,0xb0,0x3e,0x68,0x2e,0x45,0x3d,0xab,0xf7,0x61,0xbc,0x85,0x83,0x56,0xbe,0x23,0xda,0x0d,0x3e,0xb2,0x0f,0x13,0x3e,0xe8,0x1c,0x55,0x3d,0xfc,0xaf,0x77,0xbd,0xb7,0xa1,0x17,0x3d,0x03,0x4d,0x5d,0xbe,0x90,0xda,0xd1,0x3d,0xab,0x05,0xb4,0x3d,0xad,0x6c,0x84,0xbe,0x41,0x45,0x0e,0x3e,0xaa,0xa7,0xaa,0xbd,0x15,0x55,0xfd,0x3d,0xaa,0x0c,0x80,0x3e,0x51,0xdf,0x74,0xbd,0x61,0x08,0x48,0x3e,0x60,0xe5,0x11,0x3c,0xba,0x41,0x99,0xbe,0xaf,0x00,0x20,0x3e,0x06,0x8a,0x0f,0x3e,0x06,0x81,0xf9,0xbd,0x9c,0xe8,0x88,0xbe,0xd0,0x39,0x39,0x3e,0x70,0xe8,0x91,0x3c,0xc4,0xc3,0x88,0x3d,0xba,0xe4,0x96,0x3e,0x00,0xb0,0x8f,0x38,0xbe,0x74,0xd1,0x3d,0x1c,0xbf,0xf7,0x3d,0xf2,0x37,0xfc,0xbb,0xde,0x1e,0x30,0x3e,0x6f,0xf8,0x0f,0xbe,0x5d,0x04,0x05,0x3e,0xc0,0xa8,0x91,0x3b,0x4c,0x51,0x79,0x3e,0xc8,0xe0,0x5b,0xbe,0xa8,0x8d,0x6b,0x3e,0xde,0xd6,0xb1,0xbd,0x98,0x16,0x1b,0x3e,0xa7,0x8a,0x8e,0x3e,0x2c,0x46,0x86,0xbe,0x9e,0x41,0xeb,0xbd,0x5b,0x8a,0x0d,0xbe,0xb9,0x3e,0x57,0x3e,0x3e,0x4e,0x8c,0xbe,0x96,0x25,0x25,0x3e,0x40,0x18,0x31,0x3c,0x3b,0xc4,0xdf,0xbd,0x07,0x55,0x29,0xbe,0x3c,0x85,0x54,0xbe,0x5f,0x05,0x3e,0x3d,0x72,0x1f,0x44,0xbe,0x60,0x4c,0x02,0xbd,0x11,0x27,0x24,0xba,0xeb,0xff,0x7e,0xbd,0x7b,0xff,0x21,0xbe,0x1a,0xfa,0x19,0xbe,0x88,0x12,0x5e,0x3d,0x7a,0x55,0x88,0x3d,0x96,0x7b,0x5e,0x3d,0x59,0x5f,0x65,0xbd,0x85,0x95,0x3f,0x3d,0x85,0x64,0x66,0xbe,0x45,0x8d,0x7b,0x3e,0xe8,0xb7,0x8d,0x3d,0xe1,0xcc,0x43,0xbe,0x86,0xbb,0x23,0x3e,0x3c,0x34,0x6b,0x3e,0x0f,0x23,0x72,0x3e,0xc4,0x17,0x8d,0x3e,0x04,0xaa,0x8a,0x3e,0x5f,0x7e,0x82,0x3e,0x18,0x19,0x37,0x3e,0x8a,0xad,0xda,0x3d,0xe9,0x73,0x11,0xbd,0x0b,0xde,0x41,0xbe,0x54,0x04,0x61,0x3e,0x04,0xf2,0x61,0xbe,0x29,0xe0,0x03,0x3e,0xfd,0x4d,0xa8,0xbe,0x7f,0x2d,0x7b,0x3e,0x14,0x42,0xa5,0x3e,0xd1,0x48,0x22,0xbe,0xfe,0x96,0xf1,0xbd,0x48,0x79,0xab,0x3e,0x90,0x13,0x3d,0x3e,0xce,0x7b,0x33,0x3e,0xce,0x87,0xce,0x3e,0x44,0x7b,0x78,0x3e,0x46,0x48,0x4b,0xbe,0x29,0x32,0xc1,0x3e,0xa7,0xae,0x6d,0x3d,0x64,0xd9,0x22,0x3e,0xcf,0x7d,0x82,0x3e,0x8d,0x2c,0xd5,0xbd,0x56,0x5c,0x21,0x3e,0xbb,0xc6,0x14,0xbe,0x61,0xc2,0x5a,0x3e,0xd2,0xfa,0xa7,0xbd,0x1d,0x59,0x1d,0xbe,0x71,0x5f,0x00,0xbe,0x23,0x07,0x34,0x3e,0x00,0x8e,0x11,0xbd,0xf8,0x2f,0xbc,0x3d,0x07,0x6b,0x8e,0x3e,0xc6,0x51,0x82,0xbd,0xab,0xb6,0x06,0x3e,0x78,0xc5,0x63,0x3e,0x93,0xa6,0x40,0xbe,0xe6,0xa5,0xb1,0x3e,0x1e,0xc2,0x89,0x3e,0xb9,0x77,0x85,0xbe,0x07,0x2e,0xb1,0x3d,0x27,0x1a,0x10,0xbd,0x7a,0x26,0x7b,0xbd,0xc7,0x2a,0x85,0x3e,0x69,0x3c,0x2f,0xbd,0x93,0xbd,0x84,0x3e,0x94,0xf3,0xa1,0xbe,0x2b,0x2c,0x77,0xbe,0x6b,0x71,0x0c,0xbe,0x50,0xbe,0x9f,0x3d,0x18,0x4d,0x54,0xbd,0x22,0xd2,0x46,0xbe,0xe0,0xc0,0x80,0x3d,0x9b,0x1a,0x20,0x3d,0x74,0x2b,0x8d,0xbe,0xee,0x7c,0x84,0x3e,0x17,0x86,0xaa,0x3e,0x85,0x58,0x91,0x3c,0x5f,0x0c,0x89,0x3d,0xe9,0xc2,0x46,0x3e,0x0d,0x8c,0x4a,0x3e,0x32,0x01,0x05,0xbe,0x8a,0xa6,0x93,0xbe,0x3f,0xa1,0x46,0x3e,0x04,0x05,0x2a,0x3e,0xfa,0x4b,0x9e,0x3c,0x9a,0x1c,0xb8,0xbd,0x4f,0xbe,0x59,0x3e,0x38,0xc7,0x28,0xbd,0xb3,0x1d,0x2d,0x3e,0x89,0x7f,0x03,0x3e,0xb0,0x16,0x91,0x3e,0xef,0x49,0x37,0x3e,0x46,0x9e,0x05,0x3e,0x40,0x4e,0x4c,0x3e,0x3f,0xd6,0xb7,0x3c,0x54,0xca,0x55,0xbe,0xf2,0x7a,0x4a,0xbe,0x19,0xa9,0x7b,0x3e,0x2c,0x37,0x45,0xbe,0x6a,0x0f,0x65,0xbe,0x28,0x18,0x81,0x3d,0xd7,0x0d,0x5f,0x3e,0x5a,0x09,0x34,0xbe,0x59,0xbd,0x94,0x3e,0x67,0x8b,0x2f,0xbe,0x68,0xf5,0x11,0xbe,0xfa,0x40,0xe7,0x3e,0x70,0x11,0xaa,0x3e,0xf5,0x0f,0x9f,0xbc,0x9d,0x47,0xa9,0x3c,0x81,0xb3,0xb2,0x3b,0xa2,0xac,0x0d,0x3e,0x8a,0x36,0x83,0x3e,0x82,0x2a,0x69,0xbe,0x72,0x0f,0x94,0x3e,0x8d,0x82,0xbe,0x3d,0xce,0x00,0xec,0xbd,0xf4,0x3c,0x9a,0x3d,0x65,0x4b,0xb7,0xbe,0x10,0x04,0xd5,0xbd,0x74,0x05,0x74,0x3e,0x1a,0x11,0xef,0x3c,0xff,0x67,0x9b,0xbe,0xe0,0xd9,0xbf,0xbc,0xfc,0x84,0xbf,0x3e,0x38,0x87,0x85,0x3e,0x11,0xf3,0xb2,0x3e,0x26,0x23,0xa4,0xbd,0xa1,0xdb,0x6f,0xbe,0x17,0x77,0xb8,0xbd,0x94,0xae,0x63,0xbe,0x4d,0x36,0x3f,0x3e,0x82,0x4d,0x64,0x3e,0xc2,0x8a,0xf0,0xbd,0x4f,0xa2,0x9a,0xbe,0x00,0x28,0xa2,0x3a,0x30,0xd1,0xbb,0x3c,0xaf,0x85,0x02,0xbe,0xd5,0x91,0x01,0xbd,0x16,0xd7,0xa8,0x3e,0x73,0x3b,0x9f,0x3e,0xb8,0x6e,0x14,0xbe,0xa0,0xf2,0x34,0x3e,0x0b,0x4f,0x8a,0xbe,0x9b,0xb1,0x48,0xbe,0xaa,0x2c,0x70,0xbe,0xd9,0xc5,0x91,0x3d,0x85,0x63,0x6e,0xbc,0x95,0x4d,0x51,0x3e,0xe2,0x42,0x4e,0xbe,0x89,0xba,0x80,0xbe,0x97,0x9e,0x14,0xb8,0x76,0x90,0x04,0xbe,0x1b,0xa2,0x4f,0xbe,0xc6,0xc5,0x01,0xbe,0x09,0xaa,0x76,0x3e,0xec,0x46,0x18,0xbd,0xcc,0xd9,0xd2,0x3e,0xc8,0x9d,0x99,0x3d,0xf2,0x8e,0xcb,0x3d,0xc9,0x0c,0x5f,0x3e,0x0e,0x5c,0xaf,0x3e,0x11,0x9d,0xac,0xbb,0x01,0x86,0x95,0x3e,0x13,0x2d,0xfe,0x3d,0x75,0xb8,0x88,0xbe,0x6c,0x04,0x14,0x3e,0x90,0x9f,0x33,0xbe,0x3b,0x38,0x46,0xbe,0x07,0x80,0x25,0xbe,0x78,0xe3,0xdc,0x3d,0x1a,0xeb,0x01,0xbe,0x13,0x0c,0xe7,0x3d,0x6c,0xe7,0x83,0xbe,0x40,0x1d,0xc7,0x3e,0x0f,0x1b,0xae,0x3e,0xba,0x76,0xb4,0x3e,0x23,0xe9,0x51,0xbe,0xf8,0x0b,0x17,0x3e,0x6f,0xe5,0x58,0xbe,0xce,0xee,0xe4,0xbd,0x75,0x5a,0x1c,0x3e,0x0a,0xba,0xcf,0xbd,0xd8,0x17,0xc5,0x3d,0x6c,0x7e,0x59,0xbe,0xd0,0xf2,0xd7,0x3c,0x26,0xcb,0xab,0xbd,0x1e,0x7d,0x3d,0xbd,0x6e,0x85,0xa0,0xbd,0xc7,0x68,0xbb,0xbd,0x3f,0x89,0x1f,0xbe,0x5f,0xc3,0x81,0xbe,0x9e,0xa6,0x91,0x3e,0x79,0xf8,0x1d,0xbe,0xd1,0x0f,0x41,0x3d,0x60,0xbf,0xc0,0xbc,0xa9,0x1e,0x02,0xbe,0x13,0xfa,0x0f,0xbe,0xb8,0x88,0x1c,0xbe,0x94,0x75,0x00,0x3e,0x5e,0x60,0xb6,0x3d,0xad,0x38,0xd6,0xbd,0x24,0x4e,0x40,0xbe,0x79,0x47,0x13,0x3e,0xe0,0xef,0x77,0x3d,0x65,0xb3,0xe2,0x3d,0xb8,0x1e,0xb3,0x3e,0x90,0x32,0xcb,0x3e,0xbf,0xc2,0x30,0x3e,0x72,0xf5,0x17,0xbe,0xf7,0xcd,0x51,0xbe,0x14,0x58,0x35,0x3e,0x9d,0xa8,0x9b,0x3d,0x94,0x41,0xe2,0xbd,0x04,0xc4,0x60,0x3e,0x15,0x8c,0xb8,0xbe,0xdc,0xd5,0x43,0x3e,0x9a,0xd0,0x90,0xbe,0x65,0xb7,0xa4,0x3d,0x36,0xc4,0x0a,0xbe,0xb9,0x23,0x65,0xbe,0x14,0x0b,0x3f,0x3e,0x65,0x45,0x8d,0x3d,0xee,0xd0,0x48,0x3e,0xe0,0x92,0x4d,0x3e,0x22,0xe8,0xe4,0xbb,0xc5,0xdf,0x96,0x3e,0xa3,0xc0,0x2b,0x3e,0x60,0xe4,0x3c,0x3e,0x44,0x19,0x45,0x3e,0x39,0x6a,0x96,0xbe,0x26,0x6b,0xc9,0xbd,0x3d,0x74,0xf6,0x3d,0xd0,0xcf,0x72,0xbe,0xa5,0xef,0x31,0x3e,0x8e,0xf9,0x1e,0x3e,0x38,0x05,0x64,0x3e,0x3f,0x57,0x89,0xbe,0xdf,0x12,0x28,0x3c,0xa2,0x3e,0x83,0x3c,0x3a,0xdb,0x16,0xbe,0xf0,0x7a,0x0e,0xbe,0x48,0x89,0x02,0x3d,0xa0,0xf4,0x63,0x3e,0x7d,0x9b,0x0e,0xbe,0x4e,0xb8,0x13,0x3e,0xd6,0xd3,0x9a,0x3e,0x14,0x4a,0xe6,0x3c,0x34,0x53,0x8c,0x3e,0x09,0x45,0x1a,0xbe,0x51,0xa1,0x59,0x3e,0xa3,0x5b,0xbc,0x3e,0xca,0x87,0x96,0x3e,0x31,0x65,0x69,0x3e,0xa0,0x9c,0xb8,0x3d,0x7d,0xc5,0xf2,0xbc,0xee,0xf4,0x6e,0x3e,0x40,0x55,0x5d,0x3d,0x1f,0x69,0x29,0x3e,0xc1,0x52,0x45,0xbe,0x28,0x45,0x02,0x3e,0x5a,0x48,0xdf,0x3e,0xde,0x34,0xf9,0x3a,0xd3,0x45,0xf7,0x3d,0xc3,0x59,0xfe,0x3d,0x39,0x72,0xb0,0xbe,0x57,0xb4,0x82,0xbd,0xce,0x7f,0xbe,0xbd,0x25,0xe9,0x1c,0x3e,0xe0,0x30,0x44,0xbe,0x83,0x27,0x3f,0xbe,0x24,0x12,0x64,0xbe,0x1f,0x8c,0xc8,0x3c,0x30,0xb2,0x1a,0x3e,0xdc,0xa0,0xb2,0xbd,0x29,0xa6,0x22,0x3d,0xf2,0x14,0xac,0x3e,0x31,0xa7,0x87,0x3e,0x1e,0x1a,0x3b,0x3e,0x3c,0xdc,0xc8,0x3c,0xb6,0x4b,0x2c,0x3e,0x0f,0x5a,0x31,0xbd,0x89,0x84,0x97,0x3d,0x60,0xf8,0xe3,0x3c,0xb4,0x73,0x31,0xbe,0x2c,0xfc,0xee,0x3d,0x2a,0x9d,0x31,0x3e,0x14,0xf3,0xa9,0xbe,0xb5,0x29,0x4d,0x3c,0xfc,0x3f,0x3e,0x3e,0x61,0x4f,0x00,0xbe,0x3e,0xbe,0x49,0xbd,0x08,0x24,0x51,0x3e,0xf7,0x98,0x93,0x3d,0xdf,0x5f,0xb9,0xbe,0xdc,0xb6,0x35,0xbe,0xd4,0x02,0x0b,0xbd,0xdb,0xb1,0x0f,0x3d,0xb3,0xec,0xe3,0xbc,0x98,0x30,0x6b,0xbe,0x0a,0xdc,0x67,0xbd,0xc9,0x4b,0xe9,0x3d,0x4b,0x65,0x37,0x3e,0x34,0x5e,0x28,0xbe,0xec,0xf6,0x45,0x3e,0x18,0x04,0x99,0x3e,0x5c,0x03,0x58,0x3e,0x7c,0x1e,0x6e,0xbd,0xae,0x86,0x56,0xbe,0xb3,0xe4,0x6f,0x3e,0x64,0x8e,0x1c,0x3e,0x90,0x88,0xc0,0xbe,0x8a,0x50,0x26,0x3e,0x21,0xf2,0x37,0x3e,0xb1,0xb7,0x58,0xbe,0x6f,0xdd,0xdd,0x3d,0x0d,0xda,0x96,0x3e,0xa4,0xad,0xb9,0xbd,0xfa,0xc0,0x25,0xbd,0x14,0xa9,0x8e,0xbe,0x0c,0xe0,0x09,0xbe,0xa8,0x7d,0xca,0x3d,0xe4,0xab,0x53,0xbe,0xa0,0x8a,0xd0,0x3d,0x2e,0x20,0x90,0xbe,0x04,0xee,0xd7,0x3d,0xf2,0xac,0x48,0x3e,0x75,0x39,0x17,0xbe,0x91,0x9d,0x80,0x3e,0x11,0x41,0x37,0xbe,0xb4,0x0a,0xa9,0xbd,0x53,0xe5,0xa1,0x3e,0x13,0xd0,0x82,0x3d,0x40,0x9a,0x92,0x3e,0x2e,0x53,0x5c,0xbd,0xcb,0x01,0x06,0xbe,0xfd,0x8d,0xa7,0x3d,0xf9,0xcb,0xab,0x3e,0x49,0x65,0xb1,0x3e,0x89,0x7b,0x05,0xbe,0xbf,0xfd,0xba,0xbc,0x04,0xfc,0x4a,0xbd,0x48,0xf3,0x0b,0xbd,0xd0,0xb3,0xaf,0x3d,0x38,0x62,0x98,0x3e,0x18,0x62,0x96,0x3d,0x0c,0xe1,0xa9,0xbe,0xbe,0xef,0x5d,0x3e,0x26,0x30,0xf0,0x3d,0x80,0x39,0xf5,0xbc,0x3c,0xdf,0x1d,0x3e,0x75,0xa7,0xb7,0x3d,0x00,0x15,0xcd,0x3c,0xb3,0x35,0xda,0xbd,0x00,0xf0,0x7a,0xbb,0xdf,0x83,0x69,0xbe,0x2a,0xce,0x8b,0xbe,0x98,0xea,0x77,0x3e,0x49,0x6d,0x52,0xbe,0x61,0xfd,0x30,0xbd,0xea,0xc5,0x41,0xbe,0x19,0xf9,0x84,0xbe,0xfd,0xb4,0x79,0xbd,0x21,0x09,0x21,0xbe,0xe8,0x51,0x3f,0x3d,0x5a,0xa4,0x0f,0x3e,0x99,0x8b,0x6c,0xbe,0xdf,0x3b,0x97,0xbe,0x9a,0xe9,0x0c,0x3e,0x56,0x79,0x22,0xbe,0x71,0x8c,0x7d,0x3e,0xb8,0xa0,0x47,0xbd,0x14,0x12,0x3f,0xbe,0x60,0x08,0xf9,0x3d,0x52,0x0d,0xc5,0x3d,0x18,0x1a,0x4c,0x3e,0x34,0xb8,0x5e,0x3e,0xad,0x57,0x82,0x3e,0x3f,0x17,0x2c,0xbc,0x29,0x06,0x6a,0x3e,0x1a,0x1e,0x53,0xbe,0xe2,0x38,0x84,0xbe,0x28,0xa2,0x1f,0x3d,0xc8,0xc4,0x84,0xbe,0x81,0xb9,0x6b,0xbe,0x46,0x3a,0x4b,0xbe,0xb1,0x0f,0x7a,0xbe,0x1a,0x0f,0x88,0x3e,0xe3,0xa1,0x8c,0xbe,0xea,0x95,0x4c,0x3e,0x1b,0x4b,0xe5,0xbd,0x09,0xc4,0x50,0x3e,0xc4,0x78,0x5a,0x3e,0x35,0x00,0xc2,0xbd,0x53,0x20,0xe2,0xbd,0xc0,0x3f,0x9a,0xbc,0x93,0x27,0x6c,0x3d,0xed,0x66,0xa0,0xbd,0x10,0xc5,0x9f,0xbd,0xaa,0x61,0xd8,0xbd,0x0e,0x15,0x82,0x3e,0x11,0x73,0x94,0xbe,0x50,0xcd,0xcc,0xbd,0x88,0xcd,0x60,0x3e,0xa2,0x1d,0x54,0xbe,0xaa,0x9c,0x88,0xbd,0x2e,0x9c,0x16,0x3e,0x5e,0x70,0x2d,0x3e,0x76,0x16,0x3f,0xbe,0x16,0xc6,0x9f,0xbd,0xec,0x11,0x16,0x3e,0x28,0x08,0x5a,0x3d,0x1f,0xf3,0x7a,0xbe,0xd8,0xd6,0x0a,0x3e,0x40,0xf1,0x68,0x3c,0xea,0x95,0x16,0x3e,0x86,0xd8,0xa1,0xbd,0xc6,0xa2,0x44,0x3e,0xb5,0x32,0x8c,0xbe,0x80,0x94,0x79,0x3c,0xbe,0xc7,0x57,0xbe,0x0c,0xf0,0x86,0xbe,0x68,0x78,0x17,0x3d,0xa2,0x73,0x4a,0xbe,0xb0,0xd4,0x4e,0xbd,0xa0,0x6d,0x93,0x3e,0x30,0xc7,0x48,0xbe,0x04,0x3c,0x43,0x3e,0x40,0x56,0x4b,0xbd,0x4c,0x4e,0x99,0xbd,0x9c,0xdb,0x49,0x3e,0xb0,0x1d,0xa4,0x3d,0xec,0xa0,0xcd,0xbd,0x94,0xd6,0xae,0x3d,0xb0,0xc0,0x52,0x3e,0x50,0xbc,0xc9,0xbd,0x0e,0x34,0x17,0xbe,0xe8,0xcd,0xff,0x3d,0x2a,0xbd,0x13,0x3e,0x44,0xd8,0x74,0xbd,0xe7,0xb3,0x84,0xbe,0x6a,0xae,0x9a,0xbe,0x0e,0xc2,0x2f,0x3e,0x84,0x9c,0xd7,0x3d,0x10,0x55,0xe8,0xbc,0x60,0x07,0x1e,0x3c,0x00,0xe3,0x87,0xbb,0x14,0x91,0x75,0xbe,0xe8,0xf7,0x10,0x3e,0x54,0xbd,0x83,0x3d,0x7e,0xf9,0xff,0xff,0x04,0x00,0x00,0x00,0xb0,0x04,0x00,0x00,0x31,0x74,0x7c,0x3e,0x64,0xce,0x57,0x3e,0x2c,0xa3,0x98,0xbd,0xd1,0x6b,0x82,0xbe,0xb9,0x56,0x68,0xbe,0xda,0x9e,0xbe,0x3d,0x3a,0x46,0x41,0xbe,0x77,0xc5,0x61,0x3e,0x45,0xd2,0x2c,0x3e,0xa8,0x7d,0x36,0x3d,0xbc,0x80,0x00,0xbe,0xc1,0x28,0xa8,0x3e,0x83,0x0c,0x22,0x3b,0xa1,0x53,0x5c,0xbe,0x3f,0x23,0x37,0x3d,0x8c,0xfe,0x28,0x3d,0xdc,0xd3,0xf1,0x3b,0x2e,0x3d,0x6a,0xbe,0x59,0x01,0x68,0x3d,0xf6,0x1a,0x26,0x3d,0x08,0x86,0x60,0x3e,0x29,0x80,0x57,0x3e,0x08,0x0d,0x32,0xbd,0x78,0xd2,0x5d,0x3e,0x90,0x87,0x00,0xbd,0xd0,0xde,0x1c,0x3e,0x14,0xa8,0x7b,0xbe,0xe4,0x62,0x52,0xbe,0xd1,0x0b,0x9e,0xbe,0x50,0x84,0x6f,0xbe,0x1c,0x86,0x35,0xbd,0xc8,0x80,0xa2,0x3d,0x38,0x3d,0xdb,0xbe,0x27,0x0c,0xb1,0x3e,0x80,0xae,0xb1,0x3e,0x16,0x80,0x2b,0x3e,0x85,0x72,0x2d,0x3d,0x7e,0xf9,0xc3,0x3e,0xf2,0x43,0xe4,0x3e,0xcc,0xbc,0xbb,0xbd,0xc1,0x54,0x40,0x3e,0xb7,0xeb,0x4b,0x3e,0x48,0x38,0x96,0xbe,0x23,0xbb,0x74,0x3e,0x21,0x01,0x0e,0x3f,0x20,0xdd,0x21,0x3e,0x93,0x51,0x12,0x3e,0x00,0x22,0xe8,0xbc,0xe9,0x19,0x58,0xbd,0x55,0xc6,0x00,0x3e,0xf1,0x53,0x8f,0xbc,0x12,0x02,0x93,0x3e,0xe3,0x9f,0xc6,0x3e,0xca,0xdf,0x37,0x3e,0x5e,0x6b,0x90,0x3d,0x12,0x4e,0x4d,0x3e,0xc9,0x46,0xd1,0x3b,0x62,0x0e,0x8c,0x3b,0x41,0xfd,0xff,0x3c,0x35,0x4b,0x58,0x3e,0x2e,0x13,0xa1,0x3e,0x51,0xe7,0x48,0xbe,0x33,0x7c,0x1d,0xbe,0x54,0xb5,0xb1,0x3e,0x8f,0x1f,0xdf,0x3c,0x88,0x48,0x85,0x3e,0xa2,0xd7,0x3a,0x3e,0xa9,0xe9,0x66,0x3e,0xb9,0x5a,0xe4,0x3e,0x11,0x59,0xa8,0xbd,0xb6,0x41,0x3f,0xbe,0x68,0x16,0xb8,0x3d,0xa0,0x1f,0xa5,0x3e,0x7f,0xf5,0x94,0x3e,0x64,0xc8,0x36,0x3e,0x04,0x07,0x2f,0x3e,0xf8,0x0d,0x40,0xbe,0xad,0xc6,0x00,0x3e,0xd1,0x7b,0xa7,0xbe,0x67,0x9f,0xd2,0x3d,0x7d,0xb5,0x0d,0x3e,0xec,0x2e,0x80,0xbe,0x28,0x38,0x38,0x3e,0x6b,0x9d,0x3d,0x3d,0x33,0x4f,0xc5,0xbd,0x46,0x65,0x84,0xbe,0x57,0x42,0xe0,0xbd,0xb6,0xb1,0xee,0x3d,0xbb,0x14,0xe5,0x3b,0x6b,0x42,0x70,0xbd,0x36,0x15,0x40,0xbd,0xab,0x04,0x1f,0xbd,0x4f,0xf6,0x4d,0xbe,0xba,0x80,0x19,0x3d,0x7f,0x53,0x26,0x3e,0x8e,0x16,0x97,0x3d,0xfe,0x54,0x90,0x3d,0xe7,0x02,0x4b,0xbe,0x02,0x2b,0xb0,0xbe,0xc0,0x0a,0xc1,0x3e,0xd4,0xde,0x29,0xbe,0xf6,0x20,0x6f,0xbe,0xc4,0x81,0x66,0xbe,0x43,0xfc,0x4c,0xbe,0x34,0xad,0xb0,0x3d,0x52,0xa6,0x62,0xbe,0x2c,0xba,0xd7,0xbd,0x47,0x35,0x83,0xbe,0xf4,0x63,0xa9,0xbd,0x2a,0x1c,0x4a,0x3e,0xd2,0x65,0xc3,0xbe,0x1a,0xf3,0xcb,0x3d,0x16,0x28,0xaa,0x3e,0x74,0xa6,0x90,0x3d,0x62,0x73,0x9e,0x3e,0x6c,0x9c,0x9b,0x3e,0x04,0x06,0x39,0x3e,0x11,0x38,0xa2,0xbe,0xbe,0x09,0x68,0xbe,0xae,0x95,0x61,0xbe,0xbd,0x4c,0x9b,0x3e,0x4a,0x8c,0x1e,0x3e,0x9e,0x82,0x17,0x3e,0x79,0x60,0x89,0xbe,0x32,0x9f,0x57,0xbd,0xe4,0xcd,0x01,0x3e,0xeb,0xbe,0x63,0x3e,0x4b,0x0b,0x8f,0x3e,0x3d,0x4f,0xc0,0x3d,0x27,0xe4,0x15,0xbe,0x6e,0xb7,0xad,0xbe,0x76,0xdd,0x9a,0xbe,0xfc,0xef,0x80,0xbe,0x1b,0x94,0x6b,0x3e,0x26,0x6d,0x83,0xbe,0xf0,0x95,0x37,0x3c,0x0a,0xa6,0x54,0x3d,0xac,0xc7,0x29,0x3d,0x10,0x0b,0x67,0xbd,0x7c,0x32,0xd9,0x3d,0x20,0x3f,0x97,0xbd,0x9b,0x26,0x9f,0xbe,0xe1,0x52,0x6e,0xbe,0xd0,0x65,0xc7,0x3c,0x26,0xd3,0x36,0xbd,0x1a,0x99,0xf3,0xbd,0x44,0x53,0xd5,0x3e,0xe7,0xd9,0x85,0x3e,0xf1,0x30,0x01,0xbd,0xef,0x8e,0xec,0xbc,0x4f,0xc1,0xc7,0xbd,0x9b,0x3b,0xa4,0x3e,0x7a,0x47,0xcc,0x3e,0xf9,0xa8,0x5c,0xbe,0xfd,0x8a,0x9b,0x3e,0x0f,0x3a,0x6c,0xbe,0xcd,0xd4,0x6d,0xbe,0xb3,0x32,0x67,0x3e,0x35,0x35,0xfe,0x3e,0xc0,0x3d,0x0c,0x3e,0x81,0xd6,0x9a,0x3e,0xf7,0xb0,0x27,0xbe,0x86,0x7f,0x08,0x3e,0xf9,0x0b,0x15,0x3d,0x4f,0x9e,0xb0,0x3d,0x9c,0x30,0x69,0xbe,0x55,0x15,0xb4,0x3e,0xbc,0x12,0x09,0xbe,0x49,0x7b,0x62,0x3e,0x93,0x91,0x16,0x3e,0x8b,0x25,0x9f,0xbe,0x2e,0x25,0x78,0x3e,0x8f,0x9c,0x14,0x3e,0x13,0x79,0xac,0x3d,0x88,0x21,0x8a,0xbe,0xea,0xa8,0x68,0x3d,0x80,0xbb,0x5c,0x3e,0x39,0xe0,0x7b,0x3e,0x0d,0xd7,0xd5,0xbd,0x9e,0x43,0x41,0x3d,0x00,0xec,0x1e,0xbb,0xbc,0x73,0x68,0x3e,0x86,0x21,0xa5,0xbd,0x25,0xeb,0x96,0xbe,0xd7,0x6a,0x36,0xbe,0xd0,0x52,0x4a,0xbd,0xf0,0x9d,0xfc,0xbd,0x7b,0x63,0xaa,0x3c,0xe7,0x3e,0xb8,0xbe,0x93,0x4e,0xc9,0x3e,0xff,0x48,0xcb,0x3d,0x7d,0xf0,0x66,0xbe,0x74,0xb8,0x87,0xbd,0x70,0xfc,0x91,0xbe,0x96,0x8c,0x38,0xbe,0x24,0x08,0x20,0xbd,0x03,0xe3,0x82,0x3d,0x2c,0x47,0x57,0xbe,0x80,0x58,0x32,0xbc,0x5d,0x9f,0x89,0xbe,0x9c,0x68,0x81,0x3e,0x20,0xdb,0x18,0xbe,0xa8,0x8b,0x8e,0xbd,0x0c,0x6a,0xca,0xbd,0xad,0x53,0xcb,0x3e,0xdc,0xf6,0xf6,0x3a,0xd0,0xb3,0x81,0xbe,0x8f,0xa1,0xdf,0x3d,0x15,0x3d,0xfa,0xbd,0x1e,0xe8,0xf0,0x3d,0x24,0xca,0x88,0xbe,0x88,0x92,0x68,0xbd,0x70,0x16,0x31,0xbd,0x2e,0x4e,0x9c,0xbe,0xb4,0x2a,0x80,0xbd,0xfc,0xf2,0x9a,0xbd,0xaf,0x71,0xd7,0x3d,0x45,0x1b,0x5b,0xbe,0x2b,0x58,0x36,0xbe,0xc6,0xfd,0x22,0x3d,0x7c,0xa2,0x3e,0xbe,0xd9,0x67,0x95,0xbd,0x9b,0xf5,0xd1,0x3e,0x0e,0xab,0xaa,0x3e,0x97,0x22,0x6b,0xbe,0x6a,0xf1,0x01,0x3e,0x9f,0xed,0x5e,0xbe,0xee,0x78,0xcd,0x3d,0x4c,0xd9,0x8c,0xbe,0x2b,0xe5,0x37,0x3d,0xeb,0xdb,0x60,0xbe,0x8a,0xe3,0x44,0x3e,0x8e,0x68,0x32,0x3e,0x93,0x20,0xac,0xbe,0x0b,0xcf,0x2a,0xbe,0xe9,0xe1,0xa5,0x3e,0x59,0xc2,0x9a,0x3e,0xb9,0x2c,0x3d,0x3e,0x0b,0x27,0x9c,0x3d,0x70,0x0f,0x9a,0x3e,0x02,0x83,0x0c,0xbe,0x4b,0x52,0x87,0xbc,0x44,0x75,0xa6,0x3d,0x0d,0x50,0x71,0x3d,0x40,0xb9,0x53,0x3e,0x89,0xf6,0xa3,0x3e,0xf0,0x8e,0x2c,0x3d,0x41,0x7e,0xa2,0xbd,0x1e,0x1a,0x95,0x3c,0x44,0x4d,0xf4,0x3c,0x53,0x7c,0x7a,0xbe,0xe2,0x95,0x89,0x3e,0xa8,0xca,0x4c,0x3e,0xbc,0xb3,0x72,0x3e,0x88,0x50,0x21,0x3d,0xa8,0xa3,0xa3,0xbe,0xaf,0x4f,0x3f,0xbe,0x16,0x29,0x89,0xbe,0x40,0x1b,0x56,0x3e,0x1b,0xcf,0x35,0xbd,0x2a,0xfd,0x81,0x3e,0xcb,0x54,0x4f,0xbe,0x31,0xf7,0x99,0xbe,0xbd,0xb9,0xd4,0x3d,0x4b,0xb8,0x9e,0x3e,0xbe,0x18,0x15,0xbd,0xc1,0x6a,0x03,0xbf,0xf9,0xf2,0x2f,0x3e,0x6a,0x4d,0x54,0x3e,0xd9,0x00,0x71,0x3e,0xe2,0x66,0x5e,0xbe,0x1f,0x01,0xa7,0xbe,0xe4,0x29,0xe5,0xbd,0x20,0x50,0x26,0x3d,0xb6,0xfb,0x79,0xbe,0xae,0x73,0x9c,0x3e,0xa3,0xa1,0xc2,0xbd,0x67,0xcc,0x4b,0x3e,0x4a,0xcd,0x97,0x3e,0xb8,0x49,0x7f,0xbe,0x96,0xc1,0x82,0x3e,0x9f,0xec,0x53,0x3d,0x69,0x2f,0x3e,0x3e,0x8f,0x74,0x84,0x3e,0xad,0xa5,0x01,0x3e,0x02,0x09,0x03,0x3d,0x07,0xf0,0x97,0x3e,0x01,0x7e,0x85,0xbe,0xa9,0x51,0x2d,0xbe,0x50,0xdb,0x6a,0xbe,0x1f,0x3a,0xa7,0x3e,0x25,0x96,0xcc,0x3d,0x1e,0xa9,0x81,0x3e,0xb2,0x6f,0x2c,0x3e,0x48,0xc8,0xd2,0x3d,0x78,0x8b,0x83,0xbe,0xe0,0xfe,0x7d,0x3c,0x00,0x47,0xe4,0x3c,0xa5,0x7d,0x25,0xbe,0xd8,0xf7,0x45,0x3e,0x3a,0xfe,0xff,0xff,0x04,0x00,0x00,0x00,0xc8,0x00,0x00,0x00,0x54,0xcd,0x16,0xbd,0xd0,0x6c,0x03,0x3d,0x1a,0x59,0xff,0xbb,0x30,0x21,0x97,0x3d,0x00,0x00,0x00,0x00,0xdd,0xe1,0x16,0x3d,0x7e,0xd4,0xf5,0x3d,0x05,0xb3,0x7e,0x3d,0x2a,0xbf,0x8b,0x3d,0xb7,0x9d,0x12,0xbd,0x31,0x43,0x7e,0x3d,0x32,0xe1,0xac,0x3d,0x5e,0x44,0x89,0x3d,0x4f,0x8a,0x52,0xbd,0x39,0xab,0xfb,0xbc,0xc2,0x1d,0x91,0x3d,0xb9,0xa2,0xa9,0x3d,0x00,0x00,0x00,0x00,0x0c,0x71,0xf2,0xba,0x00,0x00,0x00,0x00,0x25,0x90,0xaf,0x3c,0xa9,0xa5,0x90,0xbc,0x63,0x69,0x1b,0xbd,0x00,0x00,0x00,0x00,0xc8,0x83,0xbb,0x3d,0xd9,0xa5,0x9e,0x3d,0xf9,0x0f,0xf5,0x3c,0x05,0xe9,0x70,0x3b,0x4d,0x89,0x39,0x3d,0xee,0x9e,0x40,0xbd,0x00,0x00,0x00,0x00,0xb5,0xaf,0x0d,0x3e,0x53,0x10,0xe9,0xbc,0x00,0x00,0x00,0x00,0x08,0x69,0xce,0x3d,0x00,0x00,0x00,0x00,0x9c,0x05,0x49,0xbd,0x92,0x74,0xcf,0x3c,0xda,0xf1,0x14,0xbd,0x09,0x0f,0x30,0x3d,0x59,0xf4,0xd7,0x3d,0x1a,0x38,0x7b,0xbc,0x00,0x00,0x00,0x00,0x32,0x78,0x61,0xbc,0x16,0xd4,0xd6,0x3d,0x00,0x00,0x00,0x00,0xfc,0x8f,0xc9,0x3c,0xf4,0x10,0xc7,0x3c,0xba,0x40,0x9d,0x3c,0x00,0x00,0x00,0x00,0x0e,0xff,0xff,0xff,0x04,0x00,0x00,0x00,0x08,0x00,0x00,0x00,0x86,0x0f,0xf3,0x3c,0x69,0x0f,0xf3,0xbc,0x22,0xff,0xff,0xff,0x04,0x00,0x00,0x00,0x3c,0x00,0x00,0x00,0x80,0x80,0x9c,0x3d,0x26,0x32,0xbc,0x3d,0x8c,0x03,0x8b,0x3d,0x00,0x00,0x00,0x00,0x41,0x75,0x75,0x3c,0x06,0xa8,0xa5,0x3c,0x6e,0x83,0x75,0x3d,0x14,0xb8,0xdc,0x3c,0xc8,0x2b,0xc7,0x3d,0xc6,0x23,0xc4,0x3c,0x13,0xa9,0xdf,0x3c,0xf8,0x02,0x59,0x3d,0xc2,0x35,0x48,0x3d,0xee,0x22,0x23,0xbd,0x00,0x00,0x00,0x00,0x5c,0xfa,0xff,0xff,0x60,0xfa,0xff,0xff,0x0f,0x00,0x00,0x00,0x4d,0x4c,0x49,0x52,0x20,0x43,0x6f,0x6e,0x76,0x65,0x72,0x74,0x65,0x64,0x2e,0x00,0x01,0x00,0x00,0x00,0x14,0x00,0x00,0x00,0x00,0x00,0x0e,0x00,0x18,0x00,0x14,0x00,0x10,0x00,0x0c,0x00,0x08,0x00,0x04,0x00,0x0e,0x00,0x00,0x00,0x14,0x00,0x00,0x00,0x1c,0x00,0x00,0x00,0x24,0x01,0x00,0x00,0x28,0x01,0x00,0x00,0x2c,0x01,0x00,0x00,0x04,0x00,0x00,0x00,0x6d,0x61,0x69,0x6e,0x00,0x00,0x00,0x00,0x04,0x00,0x00,0x00,0xcc,0x00,0x00,0x00,0x84,0x00,0x00,0x00,0x50,0x00,0x00,0x00,0x14,0x00,0x00,0x00,0x00,0x00,0x0e,0x00,0x1a,0x00,0x14,0x00,0x10,0x00,0x0c,0x00,0x0b,0x00,0x04,0x00,0x0e,0x00,0x00,0x00,0x1c,0x00,0x00,0x00,0x00,0x00,0x00,0x09,0x1c,0x00,0x00,0x00,0x20,0x00,0x00,0x00,0x01,0x00,0x00,0x00,0x00,0x00,0x06,0x00,0x08,0x00,0x04,0x00,0x06,0x00,0x00,0x00,0x00,0x00,0x80,0x3f,0x01,0x00,0x00,0x00,0x0a,0x00,0x00,0x00,0x01,0x00,0x00,0x00,0x09,0x00,0x00,0x00,0x9a,0xff,0xff,0xff,0x10,0x00,0x00,0x00,0x00,0x00,0x00,0x08,0x0c,0x00,0x00,0x00,0x10,0x00,0x00,0x00,0x24,0xfb,0xff,0xff,0x01,0x00,0x00,0x00,0x09,0x00,0x00,0x00,0x03,0x00,0x00,0x00,0x08,0x00,0x00,0x00,0x06,0x00,0x00,0x00,0x02,0x00,0x00,0x00,0xca,0xff,0xff,0xff,0x10,0x00,0x00,0x00,0x00,0x00,0x00,0x08,0x10,0x00,0x00,0x00,0x14,0x00,0x00,0x00,0xba,0xff,0xff,0xff,0x00,0x00,0x00,0x01,0x01,0x00,0x00,0x00,0x08,0x00,0x00,0x00,0x03,0x00,0x00,0x00,0x07,0x00,0x00,0x00,0x05,0x00,0x00,0x00,0x01,0x00,0x00,0x00,0x00,0x00,0x0e,0x00,0x16,0x00,0x00,0x00,0x10,0x00,0x0c,0x00,0x0b,0x00,0x04,0x00,0x0e,0x00,0x00,0x00,0x18,0x00,0x00,0x00,0x00,0x00,0x00,0x08,0x18,0x00,0x00,0x00,0x1c,0x00,0x00,0x00,0x00,0x00,0x06,0x00,0x08,0x00,0x07,0x00,0x06,0x00,0x00,0x00,0x00,0x00,0x00,0x01,0x01,0x00,0x00,0x00,0x07,0x00,0x00,0x00,0x03,0x00,0x00,0x00,0x00,0x00,0x00,0x00,0x04,0x00,0x00,0x00,0x03,0x00,0x00,0x00,0x01,0x00,0x00,0x00,0x0a,0x00,0x00,0x00,0x01,0x00,0x00,0x00,0x00,0x00,0x00,0x00,0x0b,0x00,0x00,0x00,0x04,0x04,0x00,0x00,0x94,0x03,0x00,0x00,0x24,0x03,0x00,0x00,0xd0,0x02,0x00,0x00,0x88,0x02,0x00,0x00,0x3c,0x02,0x00,0x00,0xf0,0x01,0x00,0x00,0x68,0x01,0x00,0x00,0xd8,0x00,0x00,0x00,0x60,0x00,0x00,0x00,0x04,0x00,0x00,0x00,0x3e,0xfc,0xff,0xff,0x00,0x00,0x00,0x01,0x14,0x00,0x00,0x00,0x1c,0x00,0x00,0x00,0x1c,0x00,0x00,0x00,0x0b,0x00,0x00,0x00,0x34,0x00,0x00,0x00,0x02,0x00,0x00,0x00,0xff,0xff,0xff,0xff,0x02,0x00,0x00,0x00,0x28,0xfc,0xff,0xff,0x19,0x00,0x00,0x00,0x53,0x74,0x61,0x74,0x65,0x66,0x75,0x6c,0x50,0x61,0x72,0x74,0x69,0x74,0x69,0x6f,0x6e,0x65,0x64,0x43,0x61,0x6c,0x6c,0x3a,0x30,0x00,0x00,0x00,0x02,0x00,0x00,0x00,0x01,0x00,0x00,0x00,0x02,0x00,0x00,0x00,0x96,0xfc,0xff,0xff,0x00,0x00,0x00,0x01,0x14,0x00,0x00,0x00,0x1c,0x00,0x00,0x00,0x1c,0x00,0x00,0x00,0x0a,0x00,0x00,0x00,0x50,0x00,0x00,0x00,0x02,0x00,0x00,0x00,0xff,0xff,0xff,0xff,0x02,0x00,0x00,0x00,0x80,0xfc,0xff,0xff,0x34,0x00,0x00,0x00,0x73,0x65,0x71,0x75,0x65,0x6e,0x74,0x69,0x61,0x6c,0x2f,0x64,0x65,0x6e,0x73,0x65,0x5f,0x32,0x2f,0x4d,0x61,0x74,0x4d,0x75,0x6c,0x3b,0x73,0x65,0x71,0x75,0x65,0x6e,0x74,0x69,0x61,0x6c,0x2f,0x64,0x65,0x6e,0x73,0x65,0x5f,0x32,0x2f,0x42,0x69,0x61,0x73,0x41,0x64,0x64,0x00,0x00,0x00,0x00,0x02,0x00,0x00,0x00,0x01,0x00,0x00,0x00,0x02,0x00,0x00,0x00,0x0a,0xfd,0xff,0xff,0x00,0x00,0x00,0x01,0x14,0x00,0x00,0x00,0x1c,0x00,0x00,0x00,0x1c,0x00,0x00,0x00,0x09,0x00,0x00,0x00,0x68,0x00,0x00,0x00,0x02,0x00,0x00,0x00,0xff,0xff,0xff,0xff,0x0f,0x00,0x00,0x00,0xf4,0xfc,0xff,0xff,0x4c,0x00,0x00,0x00,0x73,0x65,0x71,0x75,0x65,0x6e,0x74,0x69,0x61,0x6c,0x2f,0x64,0x65,0x6e,0x73,0x65,0x5f,0x31,0x2f,0x4d,0x61,0x74,0x4d,0x75,0x6c,0x3b,0x73,0x65,0x71,0x75,0x65,0x6e,0x74,0x69,0x61,0x6c,0x2f,0x64,0x65,0x6e,0x73,0x65,0x5f,0x31,0x2f,0x52,0x65,0x6c,0x75,0x3b,0x73,0x65,0x71,0x75,0x65,0x6e,0x74,0x69,0x61,0x6c,0x2f,0x64,0x65,0x6e,0x73,0x65,0x5f,0x31,0x2f,0x42,0x69,0x61,0x73,0x41,0x64,0x64,0x00,0x00,0x00,0x00,0x02,0x00,0x00,0x00,0x01,0x00,0x00,0x00,0x0f,0x00,0x00,0x00,0x96,0xfd,0xff,0xff,0x00,0x00,0x00,0x01,0x14,0x00,0x00,0x00,0x1c,0x00,0x00,0x00,0x1c,0x00,0x00,0x00,0x08,0x00,0x00,0x00,0x60,0x00,0x00,0x00,0x02,0x00,0x00,0x00,0xff,0xff,0xff,0xff,0x32,0x00,0x00,0x00,0x80,0xfd,0xff,0xff,0x46,0x00,0x00,0x00,0x73,0x65,0x71,0x75,0x65,0x6e,0x74,0x69,0x61,0x6c,0x2f,0x64,0x65,0x6e,0x73,0x65,0x2f,0x4d,0x61,0x74,0x4d,0x75,0x6c,0x3b,0x73,0x65,0x71,0x75,0x65,0x6e,0x74,0x69,0x61,0x6c,0x2f,0x64,0x65,0x6e,0x73,0x65,0x2f,0x52,0x65,0x6c,0x75,0x3b,0x73,0x65,0x71,0x75,0x65,0x6e,0x74,0x69,0x61,0x6c,0x2f,0x64,0x65,0x6e,0x73,0x65,0x2f,0x42,0x69,0x61,0x73,0x41,0x64,0x64,0x00,0x00,0x02,0x00,0x00,0x00,0x01,0x00,0x00,0x00,0x32,0x00,0x00,0x00,0x86,0xfe,0xff,0xff,0x00,0x00,0x00,0x01,0x10,0x00,0x00,0x00,0x10,0x00,0x00,0x00,0x07,0x00,0x00,0x00,0x28,0x00,0x00,0x00,0xf4,0xfd,0xff,0xff,0x19,0x00,0x00,0x00,0x73,0x65,0x71,0x75,0x65,0x6e,0x74,0x69,0x61,0x6c,0x2f,0x64,0x65,0x6e,0x73,0x65,0x5f,0x32,0x2f,0x4d,0x61,0x74,0x4d,0x75,0x6c,0x00,0x00,0x00,0x02,0x00,0x00,0x00,0x02,0x00,0x00,0x00,0x0f,0x00,0x00,0x00,0xce,0xfe,0xff,0xff,0x00,0x00,0x00,0x01,0x10,0x00,0x00,0x00,0x10,0x00,0x00,0x00,0x06,0x00,0x00,0x00,0x28,0x00,0x00,0x00,0x3c,0xfe,0xff,0xff,0x19,0x00,0x00,0x00,0x73,0x65,0x71,0x75,0x65,0x6e,0x74,0x69,0x61,0x6c,0x2f,0x64,0x65,0x6e,0x73,0x65,0x5f,0x31,0x2f,0x4d,0x61,0x74,0x4d,0x75,0x6c,0x00,0x00,0x00,0x02,0x00,0x00,0x00,0x0f,0x00,0x00,0x00,0x32,0x00,0x00,0x00,0x16,0xff,0xff,0xff,0x00,0x00,0x00,0x01,0x10,0x00,0x00,0x00,0x10,0x00,0x00,0x00,0x05,0x00,0x00,0x00,0x24,0x00,0x00,0x00,0x84,0xfe,0xff,0xff,0x17,0x00,0x00,0x00,0x73,0x65,0x71,0x75,0x65,0x6e,0x74,0x69,0x61,0x6c,0x2f,0x64,0x65,0x6e,0x73,0x65,0x2f,0x4d,0x61,0x74,0x4d,0x75,0x6c,0x00,0x02,0x00,0x00,0x00,0x32,0x00,0x00,0x00,0x06,0x00,0x00,0x00,0x5a,0xff,0xff,0xff,0x00,0x00,0x00,0x01,0x10,0x00,0x00,0x00,0x10,0x00,0x00,0x00,0x04,0x00,0x00,0x00,0x34,0x00,0x00,0x00,0xc8,0xfe,0xff,0xff,0x27,0x00,0x00,0x00,0x73,0x65,0x71,0x75,0x65,0x6e,0x74,0x69,0x61,0x6c,0x2f,0x64,0x65,0x6e,0x73,0x65,0x2f,0x42,0x69,0x61,0x73,0x41,0x64,0x64,0x2f,0x52,0x65,0x61,0x64,0x56,0x61,0x72,0x69,0x61,0x62,0x6c,0x65,0x4f,0x70,0x00,0x01,0x00,0x00,0x00,0x32,0x00,0x00,0x00,0xaa,0xff,0xff,0xff,0x00,0x00,0x00,0x01,0x10,0x00,0x00,0x00,0x10,0x00,0x00,0x00,0x03,0x00,0x00,0x00,0x38,0x00,0x00,0x00,0x18,0xff,0xff,0xff,0x29,0x00,0x00,0x00,0x73,0x65,0x71,0x75,0x65,0x6e,0x74,0x69,0x61,0x6c,0x2f,0x64,0x65,0x6e,0x73,0x65,0x5f,0x32,0x2f,0x42,0x69,0x61,0x73,0x41,0x64,0x64,0x2f,0x52,0x65,0x61,0x64,0x56,0x61,0x72,0x69,0x61,0x62,0x6c,0x65,0x4f,0x70,0x00,0x00,0x00,0x01,0x00,0x00,0x00,0x02,0x00,0x00,0x00,0x00,0x00,0x16,0x00,0x18,0x00,0x14,0x00,0x00,0x00,0x10,0x00,0x0c,0x00,0x08,0x00,0x00,0x00,0x00,0x00,0x00,0x00,0x07,0x00,0x16,0x00,0x00,0x00,0x00,0x00,0x00,0x01,0x10,0x00,0x00,0x00,0x10,0x00,0x00,0x00,0x02,0x00,0x00,0x00,0x38,0x00,0x00,0x00,0x84,0xff,0xff,0xff,0x29,0x00,0x00,0x00,0x73,0x65,0x71,0x75,0x65,0x6e,0x74,0x69,0x61,0x6c,0x2f,0x64,0x65,0x6e,0x73,0x65,0x5f,0x31,0x2f,0x42,0x69,0x61,0x73,0x41,0x64,0x64,0x2f,0x52,0x65,0x61,0x64,0x56,0x61,0x72,0x69,0x61,0x62,0x6c,0x65,0x4f,0x70,0x00,0x00,0x00,0x01,0x00,0x00,0x00,0x0f,0x00,0x00,0x00,0x00,0x00,0x16,0x00,0x1c,0x00,0x18,0x00,0x00,0x00,0x14,0x00,0x10,0x00,0x0c,0x00,0x00,0x00,0x00,0x00,0x08,0x00,0x07,0x00,0x16,0x00,0x00,0x00,0x00,0x00,0x00,0x01,0x14,0x00,0x00,0x00,0x20,0x00,0x00,0x00,0x20,0x00,0x00,0x00,0x01,0x00,0x00,0x00,0x3c,0x00,0x00,0x00,0x02,0x00,0x00,0x00,0xff,0xff,0xff,0xff,0x06,0x00,0x00,0x00,0x04,0x00,0x04,0x00,0x04,0x00,0x00,0x00,0x1d,0x00,0x00,0x00,0x73,0x65,0x72,0x76,0x69,0x6e,0x67,0x5f,0x64,0x65,0x66,0x61,0x75,0x6c,0x74,0x5f,0x64,0x65,0x6e,0x73,0x65,0x5f,0x69,0x6e,0x70,0x75,0x74,0x3a,0x30,0x00,0x00,0x00,0x02,0x00,0x00,0x00,0x01,0x00,0x00,0x00,0x06,0x00,0x00,0x00,0x02,0x00,0x00,0x00,0x20,0x00,0x00,0x00,0x04,0x00,0x00,0x00,0xf4,0xff,0xff,0xff,0x19,0x00,0x00,0x00,0x00,0x00,0x00,0x19,0x0c,0x00,0x0c,0x00,0x0b,0x00,0x00,0x00,0x00,0x00,0x04,0x00,0x0c,0x00,0x00,0x00,0x09,0x00,0x00,0x00,0x00,0x00,0x00,0x09};