unsigned char model[] = {
 0x1c, 0x00, 0x00, 0x00, 0x54, 0x46, 0x4c, 0x33, 0x14, 0x00, 0x20, 0x00,
 0x1c, 0x00, 0x18, 0x00, 0x14, 0x00, 0x10, 0x00, 0x0c, 0x00, 0x00, 0x00,
 0x08, 0x00, 0x04, 0x00, 0x14, 0x00, 0x00, 0x00, 0x1c, 0x00, 0x00, 0x00,
 0x90, 0x00, 0x00, 0x00, 0xe8, 0x00, 0x00, 0x00, 0xec, 0x13, 0x00, 0x00,
 0xfc, 0x13, 0x00, 0x00, 0x80, 0x19, 0x00, 0x00, 0x03, 0x00, 0x00, 0x00,
 0x01, 0x00, 0x00, 0x00, 0x10, 0x00, 0x00, 0x00, 0x00, 0x00, 0x0a, 0x00,
 0x10, 0x00, 0x0c, 0x00, 0x08, 0x00, 0x04, 0x00, 0x0a, 0x00, 0x00, 0x00,
 0x0c, 0x00, 0x00, 0x00, 0x1c, 0x00, 0x00, 0x00, 0x38, 0x00, 0x00, 0x00,
 0x0f, 0x00, 0x00, 0x00, 0x73, 0x65, 0x72, 0x76, 0x69, 0x6e, 0x67, 0x5f,
 0x64, 0x65, 0x66, 0x61, 0x75, 0x6c, 0x74, 0x00, 0x01, 0x00, 0x00, 0x00,
 0x04, 0x00, 0x00, 0x00, 0x98, 0xff, 0xff, 0xff, 0x0a, 0x00, 0x00, 0x00,
 0x04, 0x00, 0x00, 0x00, 0x07, 0x00, 0x00, 0x00, 0x64, 0x65, 0x6e, 0x73,
 0x65, 0x5f, 0x32, 0x00, 0x01, 0x00, 0x00, 0x00, 0x04, 0x00, 0x00, 0x00,
 0xf6, 0xeb, 0xff, 0xff, 0x04, 0x00, 0x00, 0x00, 0x0b, 0x00, 0x00, 0x00,
 0x64, 0x65, 0x6e, 0x73, 0x65, 0x5f, 0x69, 0x6e, 0x70, 0x75, 0x74, 0x00,
 0x02, 0x00, 0x00, 0x00, 0x34, 0x00, 0x00, 0x00, 0x04, 0x00, 0x00, 0x00,
 0xdc, 0xff, 0xff, 0xff, 0x0d, 0x00, 0x00, 0x00, 0x04, 0x00, 0x00, 0x00,
 0x13, 0x00, 0x00, 0x00, 0x43, 0x4f, 0x4e, 0x56, 0x45, 0x52, 0x53, 0x49,
 0x4f, 0x4e, 0x5f, 0x4d, 0x45, 0x54, 0x41, 0x44, 0x41, 0x54, 0x41, 0x00,
 0x08, 0x00, 0x0c, 0x00, 0x08, 0x00, 0x04, 0x00, 0x08, 0x00, 0x00, 0x00,
 0x0c, 0x00, 0x00, 0x00, 0x04, 0x00, 0x00, 0x00, 0x13, 0x00, 0x00, 0x00,
 0x6d, 0x69, 0x6e, 0x5f, 0x72, 0x75, 0x6e, 0x74, 0x69, 0x6d, 0x65, 0x5f,
 0x76, 0x65, 0x72, 0x73, 0x69, 0x6f, 0x6e, 0x00, 0x0e, 0x00, 0x00, 0x00,
 0x00, 0x13, 0x00, 0x00, 0xf8, 0x12, 0x00, 0x00, 0x20, 0x12, 0x00, 0x00,
 0x08, 0x12, 0x00, 0x00, 0xbc, 0x11, 0x00, 0x00, 0xfc, 0x0c, 0x00, 0x00,
 0x34, 0x01, 0x00, 0x00, 0xac, 0x00, 0x00, 0x00, 0xa4, 0x00, 0x00, 0x00,
 0x9c, 0x00, 0x00, 0x00, 0x94, 0x00, 0x00, 0x00, 0x8c, 0x00, 0x00, 0x00,
 0x6c, 0x00, 0x00, 0x00, 0x04, 0x00, 0x00, 0x00, 0xa6, 0xec, 0xff, 0xff,
 0x04, 0x00, 0x00, 0x00, 0x58, 0x00, 0x00, 0x00, 0x0c, 0x00, 0x00, 0x00,
 0x08, 0x00, 0x0e, 0x00, 0x08, 0x00, 0x04, 0x00, 0x08, 0x00, 0x00, 0x00,
 0x10, 0x00, 0x00, 0x00, 0x28, 0x00, 0x00, 0x00, 0x00, 0x00, 0x06, 0x00,
 0x08, 0x00, 0x04, 0x00, 0x06, 0x00, 0x00, 0x00, 0x04, 0x00, 0x00, 0x00,
 0x01, 0x00, 0x00, 0x00, 0xea, 0x03, 0x00, 0x00, 0x00, 0x00, 0x0a, 0x00,
 0x10, 0x00, 0x0c, 0x00, 0x08, 0x00, 0x04, 0x00, 0x0a, 0x00, 0x00, 0x00,
 0x02, 0x00, 0x00, 0x00, 0x02, 0x00, 0x00, 0x00, 0x04, 0x00, 0x00, 0x00,
 0x05, 0x00, 0x00, 0x00, 0x32, 0x2e, 0x39, 0x2e, 0x31, 0x00, 0x00, 0x00,
 0x0a, 0xed, 0xff, 0xff, 0x04, 0x00, 0x00, 0x00, 0x10, 0x00, 0x00, 0x00,
 0x31, 0x2e, 0x35, 0x2e, 0x30, 0x00, 0x00, 0x00, 0x00, 0x00, 0x00, 0x00,
 0x00, 0x00, 0x00, 0x00, 0x50, 0xe8, 0xff, 0xff, 0x54, 0xe8, 0xff, 0xff,
 0x58, 0xe8, 0xff, 0xff, 0x5c, 0xe8, 0xff, 0xff, 0x36, 0xed, 0xff, 0xff,
 0x04, 0x00, 0x00, 0x00, 0x78, 0x00, 0x00, 0x00, 0x12, 0x79, 0x00, 0xbf,
 0x32, 0x1e, 0xa8, 0xbe, 0x4c, 0xd4, 0x78, 0x3e, 0x90, 0x59, 0xbc, 0x3f,
 0x92, 0x53, 0x79, 0x3f, 0xd5, 0x80, 0xdb, 0x3f, 0xb7, 0xb3, 0x35, 0xbe,
 0xf6, 0x8b, 0xf1, 0xbe, 0x0d, 0xe7, 0x89, 0x3f, 0xd2, 0xbb, 0x02, 0x3f,
 0xdc, 0xdb, 0xb3, 0x3f, 0xf7, 0x6c, 0xa7, 0xbe, 0x00, 0x66, 0xd2, 0xbe,
 0x84, 0x60, 0x9b, 0x3f, 0xbf, 0xe2, 0x3c, 0xbf, 0x18, 0x2f, 0x56, 0x3e,
 0x3c, 0x88, 0x28, 0x3f, 0x68, 0x27, 0xac, 0x3d, 0x2b, 0x6a, 0x99, 0xbf,
 0x1a, 0xde, 0xdf, 0xbf, 0xe6, 0xa7, 0x82, 0xbf, 0x8a, 0xf2, 0xfe, 0x3c,
 0x8e, 0xb5, 0x59, 0x3c, 0xa6, 0x00, 0xf4, 0xbf, 0x90, 0x4e, 0x60, 0x3e,
 0xc9, 0xc3, 0xa6, 0xbf, 0x75, 0x22, 0x99, 0xbe, 0xd8, 0x92, 0x60, 0x3e,
 0x11, 0x87, 0xbd, 0xbf, 0x9e, 0x09, 0x2a, 0x3f, 0xba, 0xed, 0xff, 0xff,
 0x04, 0x00, 0x00, 0x00, 0xb8, 0x0b, 0x00, 0x00, 0xc6, 0xc2, 0xdc, 0xbd,
 0xdb, 0x9a, 0x2b, 0x3e, 0x1c, 0xcb, 0x71, 0x3e, 0xc0, 0xc2, 0x3d, 0x3d,
 0xf3, 0x44, 0x96, 0xbd, 0x20, 0x63, 0x25, 0xbe, 0xc5, 0x1e, 0x78, 0xbe,
 0x23, 0xbc, 0x52, 0xbe, 0x00, 0x16, 0xc8, 0xbd, 0x86, 0xb4, 0x96, 0x3e,
 0xd3, 0xf6, 0x74, 0x3e, 0x5e, 0xc7, 0x83, 0xbe, 0x5a, 0x30, 0x3b, 0x3e,
 0xeb, 0x2b, 0x32, 0x3e, 0xb0, 0x7a, 0x05, 0x3d, 0x25, 0xbf, 0xad, 0x3d,
 0xdc, 0x39, 0x80, 0xbd, 0x03, 0xdd, 0x74, 0xbc, 0x08, 0xde, 0x09, 0x3e,
 0x54, 0x27, 0x7c, 0xbd, 0xd6, 0x40, 0x84, 0xbd, 0x9c, 0x84, 0x7e, 0xbe,
 0xc8, 0xd0, 0x80, 0xbe, 0x1a, 0x48, 0x96, 0x3e, 0x75, 0x2a, 0x5b, 0x3d,
 0x36, 0x21, 0x8f, 0xbe, 0x76, 0x05, 0x93, 0x3e, 0x77, 0xb1, 0x87, 0xbe,
 0xf6, 0x55, 0x29, 0xbe, 0xb4, 0x28, 0x83, 0x3e, 0xfa, 0x96, 0xe8, 0xbd,
 0xfc, 0x0c, 0x8b, 0xbd, 0x40, 0xc3, 0xdb, 0x3b, 0xbd, 0x2a, 0x79, 0xbc,
 0xfe, 0x1e, 0x95, 0xbe, 0x4a, 0x82, 0x42, 0x3e, 0x30, 0x32, 0xe5, 0xbc,
 0xdc, 0xc8, 0x48, 0xbe, 0x69, 0x5d, 0x64, 0xbe, 0xd9, 0xe2, 0xdb, 0x3b,
 0xd7, 0xe3, 0x1e, 0x3e, 0xf2, 0x01, 0x37, 0x3e, 0x74, 0x5f, 0x1e, 0x3e,
 0x20, 0x91, 0x10, 0x3e, 0x43, 0xf1, 0x10, 0xbe, 0x6e, 0xf7, 0x02, 0xbe,
 0x08, 0x2f, 0x31, 0x3e, 0xb2, 0xdf, 0x80, 0x3e, 0xdc, 0x8d, 0x30, 0x3e,
 0xb8, 0x7a, 0x45, 0xbe, 0x19, 0x82, 0xb8, 0x3d, 0x65, 0x5f, 0x18, 0x3e,
 0xf1, 0xe0, 0x03, 0xbf, 0x36, 0xc5, 0x09, 0x3e, 0x4d, 0xf4, 0xa6, 0xbd,
 0xb9, 0xc1, 0x48, 0x3e, 0xc0, 0x27, 0x76, 0xbd, 0x7a, 0x13, 0x46, 0xbe,
 0xa4, 0x61, 0xb3, 0x3e, 0xac, 0xf0, 0x8d, 0xbd, 0xea, 0x90, 0x5c, 0x3e,
 0x6c, 0x5e, 0x8e, 0x3e, 0x2e, 0x55, 0x97, 0x3e, 0xdc, 0xde, 0xbe, 0x3d,
 0x60, 0xac, 0xfd, 0x3c, 0x5a, 0x48, 0xbc, 0x3d, 0x0f, 0x65, 0x27, 0xbe,
 0xeb, 0xf5, 0xd5, 0xbe, 0x40, 0xf6, 0x12, 0x3d, 0x78, 0xdb, 0x83, 0xbe,
 0x68, 0x3d, 0x02, 0x3d, 0xae, 0x58, 0x94, 0xbe, 0x90, 0x3c, 0x6e, 0x3e,
 0xbd, 0xc2, 0x56, 0xbe, 0xec, 0x8a, 0xc5, 0xbe, 0x31, 0x3a, 0xd4, 0x3e,
 0xcc, 0x56, 0x98, 0xbd, 0x96, 0x99, 0x89, 0x3e, 0xe0, 0x87, 0x98, 0x3e,
 0x16, 0x82, 0x84, 0xbd, 0x01, 0x9f, 0xa1, 0x3e, 0x08, 0x76, 0x36, 0x3e,
 0xb2, 0x48, 0x81, 0xbe, 0x83, 0x64, 0xbf, 0x3e, 0x6a, 0x61, 0xe2, 0x3d,
 0xa5, 0x42, 0x00, 0xbf, 0x94, 0xb5, 0x8a, 0x3e, 0x68, 0x61, 0x02, 0x3d,
 0xbc, 0x5e, 0x11, 0x3e, 0x62, 0xaa, 0x05, 0xbe, 0x78, 0x56, 0xec, 0x3e,
 0x60, 0x4f, 0x78, 0xbc, 0x29, 0x15, 0x9b, 0xbe, 0x39, 0xe4, 0xe9, 0x3e,
 0xd8, 0xfc, 0x82, 0x3e, 0xba, 0x58, 0xa4, 0xba, 0x54, 0x4a, 0xab, 0x3e,
 0x40, 0x1f, 0xbc, 0x3c, 0x20, 0x91, 0x29, 0xbc, 0xb5, 0xcf, 0x80, 0x3d,
 0x7e, 0xc1, 0x24, 0x3e, 0x92, 0xee, 0x90, 0xbd, 0xc0, 0x22, 0x55, 0xbc,
 0xa2, 0x1c, 0x35, 0xbe, 0x90, 0x61, 0x44, 0x3e, 0x44, 0xb5, 0x52, 0xbe,
 0x00, 0x84, 0xec, 0x3b, 0x78, 0x89, 0x0b, 0x3d, 0xbc, 0x14, 0x95, 0x3d,
 0x70, 0x46, 0x7b, 0x3e, 0xd6, 0xd4, 0x86, 0xbe, 0x96, 0x86, 0x88, 0xbe,
 0xda, 0xb4, 0x14, 0x3e, 0xfc, 0x0b, 0x6e, 0x3e, 0x12, 0x55, 0x0f, 0x3e,
 0x30, 0xef, 0xdb, 0xbc, 0x68, 0x41, 0x80, 0xbe, 0x78, 0x3e, 0x48, 0xbe,
 0xf0, 0x3e, 0x09, 0x3d, 0x9e, 0x48, 0x75, 0xbe, 0x48, 0x6b, 0x00, 0x3d,
 0x8e, 0xc9, 0x15, 0x3e, 0xac, 0x61, 0xc5, 0x3d, 0x98, 0xfe, 0x0b, 0x3d,
 0x04, 0xc5, 0x7f, 0xbe, 0xdb, 0x1f, 0x21, 0xbe, 0xc8, 0x27, 0x9b, 0x3e,
 0x21, 0x3c, 0x5b, 0xbe, 0x4b, 0x4b, 0x20, 0xbe, 0xe0, 0x74, 0x78, 0x3d,
 0xb4, 0xf0, 0x0f, 0x3e, 0xf0, 0x8c, 0x58, 0xbe, 0xbc, 0xf8, 0x81, 0x3e,
 0x90, 0xbc, 0xaf, 0x3c, 0x0a, 0xcf, 0x36, 0x3e, 0x58, 0x97, 0x3c, 0x3d,
 0x10, 0x0f, 0x93, 0x3e, 0xd0, 0x5e, 0xcf, 0xbc, 0x0a, 0x6a, 0x23, 0x3e,
 0xa4, 0xfc, 0x2b, 0x3e, 0x68, 0x7e, 0xe6, 0x3d, 0xe4, 0x24, 0xe0, 0xbd,
 0xb5, 0x93, 0x95, 0xbe, 0x9e, 0x32, 0x82, 0xbe, 0xdc, 0xd3, 0x6f, 0xbd,
 0xf0, 0x65, 0x8d, 0xbe, 0xbc, 0xba, 0xbd, 0x3d, 0x12, 0xd8, 0x3f, 0x3e,
 0x80, 0xee, 0xe8, 0xbd, 0x30, 0xd1, 0xdb, 0x3d, 0xf2, 0xa5, 0xad, 0xbe,
 0xcc, 0x7e, 0x5a, 0x3e, 0x23, 0x77, 0x9c, 0x3f, 0x94, 0xcc, 0x7d, 0x3e,
 0xe3, 0xcd, 0xd2, 0x3d, 0x7b, 0xe9, 0x86, 0x3c, 0xe0, 0xa4, 0x4f, 0x3d,
 0x88, 0x0f, 0xb3, 0x3d, 0x85, 0xe6, 0xaa, 0xbb, 0x08, 0x69, 0x2e, 0x3d,
 0x9b, 0xda, 0x97, 0x3d, 0x08, 0xaf, 0xcf, 0x3d, 0xb0, 0x3d, 0xc3, 0xbd,
 0xcc, 0x6f, 0x99, 0xbe, 0xc8, 0x1c, 0xb8, 0x3d, 0x3c, 0xd1, 0x5b, 0xbb,
 0x00, 0x50, 0x51, 0x3d, 0x83, 0x1e, 0x8b, 0x3f, 0x14, 0x24, 0x0a, 0xbe,
 0x9e, 0x1d, 0x83, 0x3e, 0x3c, 0x5e, 0x8a, 0x3e, 0xa0, 0xbf, 0x2b, 0xbe,
 0x10, 0x00, 0x36, 0x3d, 0xc1, 0x34, 0xe5, 0xbd, 0x0e, 0xc2, 0x7f, 0x3f,
 0x19, 0x42, 0x95, 0x3e, 0x9b, 0x03, 0x6d, 0xbe, 0x80, 0x1f, 0xdd, 0xbc,
 0x00, 0x14, 0x93, 0x3e, 0xe8, 0xc2, 0x30, 0xbd, 0xe8, 0xfc, 0xa8, 0x3e,
 0x39, 0x29, 0x2d, 0x3e, 0x0d, 0x5e, 0x97, 0xbe, 0xc6, 0xb1, 0x41, 0xbe,
 0x34, 0x9f, 0x1d, 0xbf, 0x97, 0xda, 0x81, 0x3f, 0xa6, 0x7f, 0xda, 0xbd,
 0x58, 0x74, 0x0c, 0xbe, 0xfc, 0x04, 0x68, 0x3e, 0xac, 0x3a, 0x85, 0x3f,
 0x48, 0xea, 0x94, 0x3e, 0x78, 0xab, 0x1e, 0x3d, 0xd9, 0xe2, 0x93, 0x3f,
 0x05, 0x5c, 0x19, 0xbc, 0xc0, 0x9d, 0x4d, 0x3c, 0x1f, 0xe5, 0x6e, 0x3e,
 0x0f, 0xeb, 0x71, 0xbe, 0x30, 0xc7, 0x11, 0x3d, 0xc0, 0x4b, 0x75, 0x3c,
 0xe5, 0x00, 0x06, 0xbf, 0x72, 0x80, 0x38, 0x3e, 0x30, 0xba, 0xa9, 0x3e,
 0xa9, 0x62, 0xab, 0x3f, 0x30, 0xd4, 0xc7, 0x3d, 0x8e, 0xf9, 0x6c, 0x3d,
 0xa0, 0x50, 0xe1, 0xbd, 0xda, 0xff, 0x05, 0x3e, 0xa8, 0x19, 0x63, 0x3e,
 0x81, 0x6e, 0x09, 0xbe, 0x6a, 0x70, 0x66, 0xbe, 0xcb, 0xb6, 0x78, 0xbe,
 0x84, 0xac, 0x5b, 0x3e, 0x12, 0x57, 0xff, 0xbd, 0x14, 0x5c, 0xd3, 0xbd,
 0xd8, 0x52, 0x45, 0x3d, 0x66, 0x37, 0x92, 0xbe, 0xd8, 0xde, 0x59, 0xbd,
 0xcd, 0x9f, 0x84, 0x3f, 0x58, 0xcc, 0xac, 0xbd, 0x09, 0x5d, 0xe2, 0x3e,
 0xcc, 0xba, 0x78, 0x3e, 0x82, 0x1e, 0x37, 0x3d, 0x86, 0xa5, 0x85, 0xbd,
 0x30, 0xa5, 0x87, 0xbe, 0xf5, 0x95, 0xa8, 0x3f, 0xcc, 0xcd, 0x94, 0x3e,
 0x1c, 0xe1, 0x90, 0x3e, 0xe0, 0x69, 0xad, 0x3d, 0xf3, 0x89, 0x99, 0xbe,
 0xf4, 0x72, 0x79, 0x3e, 0xa5, 0x91, 0xb7, 0x3e, 0x97, 0x88, 0xb8, 0x3e,
 0xc8, 0xfc, 0x2c, 0x3e, 0xc5, 0x55, 0xae, 0xbe, 0x09, 0x7e, 0x86, 0xbe,
 0xdc, 0x88, 0x34, 0x3f, 0x00, 0xd2, 0x83, 0xbb, 0xa0, 0xa8, 0x21, 0xbd,
 0xe2, 0xbb, 0x06, 0x3e, 0x0a, 0xca, 0x8c, 0x3f, 0x95, 0xf5, 0x47, 0x3e,
 0x5c, 0x5c, 0xb8, 0x3d, 0xba, 0x5c, 0x82, 0x3f, 0xcd, 0xed, 0x8b, 0xbe,
 0x28, 0x41, 0x6b, 0x3e, 0x31, 0xd0, 0xfe, 0x3e, 0x09, 0x1a, 0x48, 0x3e,
 0x04, 0x0f, 0xfe, 0x3d, 0x98, 0xae, 0xaf, 0x3d, 0x57, 0x29, 0x7f, 0xbe,
 0x91, 0x45, 0x94, 0xbe, 0x4d, 0xdf, 0x9b, 0x3e, 0xf8, 0xb6, 0xa4, 0x3f,
 0x58, 0xdb, 0x1f, 0x3d, 0xbc, 0x35, 0xfb, 0xbd, 0x9c, 0xa3, 0xd1, 0xbc,
 0xb8, 0xc6, 0x0a, 0x3d, 0xee, 0xd6, 0x4d, 0xbe, 0x0e, 0x9a, 0xa6, 0xbe,
 0x00, 0xc7, 0x74, 0xbe, 0x70, 0xe1, 0xe8, 0xbe, 0x72, 0x21, 0xb6, 0xbd,
 0x40, 0x58, 0x73, 0x3c, 0x5d, 0x39, 0x6d, 0x3e, 0x0e, 0x51, 0xb4, 0xbd,
 0xc7, 0x4f, 0xc8, 0xbd, 0x6c, 0xce, 0x83, 0x3e, 0x10, 0x41, 0x8a, 0x3f,
 0xf0, 0xe4, 0xc4, 0x3c, 0x34, 0x46, 0xa8, 0x3e, 0x14, 0x3f, 0x91, 0xbe,
 0xec, 0x4c, 0x4f, 0xbe, 0xb8, 0xa2, 0x28, 0xbd, 0x4b, 0xbe, 0xa4, 0x3d,
 0xe7, 0x15, 0x92, 0x3f, 0xd8, 0x78, 0xb9, 0x3e, 0x2f, 0xf7, 0x81, 0x3e,
 0xba, 0x94, 0x88, 0xbd, 0x43, 0x8b, 0x91, 0xbe, 0x02, 0xeb, 0xda, 0xbd,
 0x97, 0xdc, 0xd3, 0x3d, 0x30, 0xf8, 0xa9, 0x3e, 0x06, 0xe4, 0xdf, 0xbd,
 0xc4, 0x0c, 0x16, 0xbe, 0xbc, 0x25, 0x33, 0xbe, 0xff, 0xf4, 0x6d, 0x3f,
 0xc0, 0xd7, 0x03, 0x3e, 0x80, 0xc6, 0x84, 0xbc, 0xc4, 0x19, 0x93, 0xbd,
 0x2f, 0xf7, 0x83, 0x3f, 0x4e, 0x59, 0xdc, 0x3e, 0x14, 0x8f, 0xf8, 0x3d,
 0x75, 0x0b, 0x71, 0x3f, 0xfe, 0x03, 0xdd, 0xbe, 0x8e, 0x41, 0xcc, 0xbd,
 0xf5, 0x2c, 0x95, 0x3e, 0x10, 0x5c, 0x67, 0x3d, 0x38, 0x58, 0x23, 0xbd,
 0x72, 0xd3, 0x3d, 0xbe, 0xec, 0xde, 0x67, 0xbe, 0x6d, 0x8b, 0xe3, 0xbb,
 0x05, 0xb0, 0x72, 0xbe, 0x92, 0xda, 0x66, 0xbe, 0x6c, 0x4d, 0x5d, 0xbe,
 0xf3, 0x3f, 0x11, 0xbe, 0x98, 0x9b, 0x13, 0xbe, 0x0c, 0xcc, 0x48, 0xbe,
 0x60, 0xcb, 0xd5, 0x3d, 0x5c, 0xe3, 0x77, 0xbe, 0xb8, 0x4a, 0x7d, 0x3e,
 0x20, 0x27, 0xcb, 0x3d, 0xac, 0x70, 0x90, 0x3e, 0x8c, 0x7e, 0xf8, 0x3d,
 0x93, 0x39, 0x18, 0x3e, 0xf4, 0xda, 0x26, 0xbe, 0x70, 0x55, 0x49, 0xbe,
 0x82, 0xf3, 0x87, 0xbe, 0xf8, 0x52, 0x08, 0x3e, 0xb6, 0x1c, 0x0f, 0x3e,
 0x65, 0x1d, 0x9d, 0x3d, 0xb6, 0x4d, 0xc8, 0xbd, 0xe2, 0x93, 0x09, 0xbe,
 0xd6, 0x43, 0x40, 0x3e, 0x96, 0x6d, 0x16, 0x3e, 0x93, 0x43, 0x1b, 0x3e,
 0x0a, 0x41, 0x90, 0xbd, 0x22, 0x9e, 0x88, 0xbe, 0xca, 0xb7, 0x79, 0xbe,
 0xd6, 0x0c, 0x83, 0x3e, 0x40, 0x85, 0x30, 0xbd, 0x14, 0x2e, 0x6f, 0x3e,
 0xcb, 0x70, 0x2e, 0x3e, 0xe2, 0x5c, 0x5d, 0xbe, 0x75, 0xba, 0x63, 0xbe,
 0x6e, 0x26, 0xd1, 0x3d, 0x67, 0x33, 0x91, 0x3e, 0xbb, 0x24, 0x91, 0xbe,
 0xac, 0x19, 0x11, 0x3e, 0xd8, 0x4d, 0xe7, 0x3d, 0x03, 0x35, 0xa8, 0xbb,
 0x33, 0x86, 0x9b, 0xbe, 0x88, 0x94, 0x11, 0x3e, 0x1b, 0x84, 0xda, 0xbc,
 0x8c, 0xa2, 0x5e, 0xbd, 0xf0, 0xf8, 0x8c, 0xbd, 0x9e, 0xd2, 0x84, 0x3e,
 0x64, 0xde, 0x95, 0x3e, 0x88, 0xc8, 0x87, 0x3e, 0x24, 0xae, 0x60, 0xbe,
 0x33, 0xb7, 0xfa, 0x3d, 0x41, 0x77, 0x44, 0xbe, 0xb0, 0xce, 0x56, 0x3d,
 0x13, 0xc5, 0x89, 0x3e, 0x04, 0xf5, 0x20, 0x3e, 0xed, 0x6e, 0x6e, 0xbd,
 0x15, 0x22, 0xe6, 0xbd, 0x3a, 0x36, 0x71, 0xbe, 0x68, 0x3d, 0x7b, 0x3e,
 0x1e, 0x3a, 0xf0, 0xbd, 0xd6, 0x5a, 0x0e, 0x3e, 0x40, 0xe9, 0xcc, 0xbd,
 0x70, 0x31, 0x60, 0x3e, 0xa0, 0x69, 0x16, 0xbd, 0x69, 0xb7, 0x38, 0x3e,
 0x0c, 0xcc, 0xe2, 0x3d, 0xbd, 0x51, 0x87, 0x3d, 0x28, 0xd8, 0x88, 0x3e,
 0xb4, 0x29, 0x2c, 0x3e, 0x5c, 0x9e, 0x8e, 0xbe, 0x5b, 0xa6, 0x1b, 0x3e,
 0x82, 0xf4, 0x2f, 0xbe, 0x41, 0xc5, 0x18, 0xbe, 0xd2, 0xd1, 0xf1, 0xbd,
 0xf6, 0x7d, 0x39, 0xbe, 0xfa, 0x47, 0x1d, 0x3e, 0x41, 0xc7, 0x88, 0xbe,
 0x08, 0xd4, 0x62, 0x3e, 0xe0, 0x26, 0x4b, 0x3e, 0x62, 0x32, 0x53, 0xbe,
 0x08, 0x55, 0x97, 0xbe, 0xa0, 0xb0, 0xb1, 0x3d, 0x6c, 0x91, 0x1f, 0x3c,
 0xea, 0x7f, 0xaf, 0xbd, 0xf9, 0x5d, 0xa9, 0x3d, 0xd9, 0xe9, 0x45, 0x3e,
 0xb6, 0x58, 0x43, 0xbc, 0x40, 0xec, 0x9f, 0xbd, 0x6c, 0xc3, 0x85, 0xbe,
 0x6a, 0xad, 0xe4, 0xbd, 0xc7, 0x2c, 0x9e, 0x3c, 0x2a, 0xa6, 0x05, 0xbd,
 0xd4, 0x3a, 0xaf, 0x3d, 0x06, 0xdf, 0x82, 0x3e, 0x5f, 0x2b, 0x98, 0xbd,
 0xdc, 0x60, 0x0e, 0x3e, 0xe6, 0x99, 0xd4, 0xbd, 0x94, 0xa9, 0x8b, 0xbe,
 0xd2, 0x9d, 0x47, 0x3e, 0x92, 0x6d, 0x12, 0xbe, 0xac, 0xf7, 0xc0, 0xbd,
 0x53, 0x41, 0x5c, 0xbe, 0x14, 0x1c, 0xc3, 0x3e, 0x89, 0xa1, 0x52, 0x3f,
 0x7d, 0xac, 0x8f, 0xbe, 0x74, 0xff, 0xa8, 0x3e, 0x7b, 0xc5, 0x60, 0x3c,
 0xdc, 0x61, 0x56, 0xbe, 0x0f, 0xa3, 0x8a, 0xbe, 0xe1, 0x8c, 0xc3, 0xbe,
 0x00, 0x48, 0x62, 0xbb, 0xf8, 0x48, 0x99, 0xbe, 0x80, 0x74, 0x8f, 0x3d,
 0x0c, 0xbf, 0xe5, 0x3d, 0x27, 0xb0, 0xb2, 0xbd, 0xf0, 0x3e, 0x46, 0x3d,
 0xd4, 0xfd, 0xe7, 0x3d, 0x52, 0x7f, 0x91, 0x3e, 0x88, 0xf6, 0x83, 0x3f,
 0x6c, 0x24, 0xc2, 0x3d, 0x76, 0x60, 0xc1, 0x3e, 0x88, 0xf5, 0x45, 0xbe,
 0xcb, 0xbc, 0xd3, 0xbe, 0x0a, 0x9e, 0x29, 0x3e, 0xe1, 0x6d, 0x4a, 0xbe,
 0xec, 0x71, 0xae, 0x3f, 0x75, 0x65, 0x35, 0xbe, 0x8e, 0x9a, 0x89, 0x3e,
 0x70, 0xb9, 0x67, 0xbd, 0x98, 0xb7, 0x9d, 0x3d, 0xec, 0xae, 0x57, 0x3e,
 0x8b, 0x8b, 0xb0, 0x3e, 0x74, 0x42, 0xd9, 0x3e, 0x89, 0x9a, 0x9a, 0xbe,
 0x62, 0x94, 0xc5, 0xbe, 0xe1, 0x8d, 0x90, 0xbe, 0x0e, 0x53, 0xa0, 0x3f,
 0x96, 0x7d, 0x8c, 0x3e, 0x07, 0xf8, 0x1a, 0xbe, 0x10, 0x5e, 0x78, 0x3e,
 0x31, 0x97, 0xad, 0x3f, 0xe8, 0xe4, 0xb6, 0x3e, 0x47, 0x71, 0x8b, 0xbe,
 0x2c, 0x41, 0x91, 0x3f, 0x3c, 0x6a, 0x92, 0xbe, 0xa0, 0x3d, 0xd8, 0xbd,
 0xd5, 0x3b, 0xb5, 0x3e, 0xa8, 0xd8, 0x8f, 0xbe, 0x98, 0xdf, 0x70, 0xbd,
 0xd8, 0xf1, 0xc7, 0x3d, 0xdd, 0x69, 0x14, 0xbf, 0xec, 0x77, 0x62, 0xbe,
 0xa6, 0x3a, 0x30, 0x3e, 0x84, 0xeb, 0x71, 0x3e, 0x78, 0xb2, 0xf3, 0x3d,
 0xee, 0x8f, 0x8d, 0xbe, 0x48, 0x32, 0x54, 0xbd, 0x6a, 0x80, 0x09, 0xbe,
 0x10, 0xb7, 0x76, 0xbe, 0xc0, 0xa2, 0xcc, 0x3b, 0xb1, 0x68, 0x8c, 0xbe,
 0xc8, 0xe1, 0xf7, 0x3d, 0x7a, 0xe8, 0x99, 0x3e, 0xd2, 0x09, 0x77, 0xbe,
 0xce, 0x45, 0x9b, 0xbe, 0x30, 0x98, 0xd1, 0x3d, 0x68, 0xb8, 0xd3, 0xbd,
 0xa3, 0x0e, 0x1d, 0xbe, 0x3c, 0xf4, 0x4d, 0x3e, 0xc4, 0x6d, 0x92, 0x3e,
 0x97, 0x1f, 0x9b, 0xbe, 0x26, 0xf0, 0x4d, 0xbe, 0x48, 0x69, 0x86, 0x3e,
 0xf0, 0x6a, 0x08, 0xbd, 0xb5, 0x34, 0x82, 0xbe, 0x48, 0x07, 0xc1, 0x3d,
 0xb1, 0xb9, 0x11, 0xbe, 0x40, 0xc9, 0x48, 0x3d, 0x90, 0x78, 0x63, 0x3e,
 0xd1, 0x15, 0x5c, 0xbe, 0x4c, 0x5b, 0x33, 0xbe, 0x4c, 0x1b, 0x8c, 0x3e,
 0x90, 0x04, 0xaf, 0x3d, 0xb2, 0xf7, 0x8e, 0xbe, 0x40, 0x79, 0xe8, 0x3c,
 0x50, 0x4e, 0xd1, 0xbc, 0xb6, 0x04, 0x47, 0x3e, 0xb2, 0x95, 0x99, 0xbe,
 0x94, 0x93, 0x11, 0xbe, 0x50, 0xb6, 0x62, 0xbd, 0xd0, 0xe7, 0xa2, 0x3c,
 0x26, 0xb3, 0x01, 0xbe, 0xd5, 0x10, 0x06, 0xbe, 0xe5, 0x8c, 0x1d, 0xbe,
 0x35, 0x57, 0x96, 0xbe, 0x72, 0x10, 0xae, 0xbd, 0xa8, 0x8b, 0x22, 0xbd,
 0x7a, 0xa1, 0x99, 0xbe, 0x91, 0x5d, 0x96, 0xbe, 0x96, 0x3e, 0x1b, 0x3e,
 0x70, 0xa0, 0x95, 0x3e, 0x63, 0xb0, 0x74, 0xbe, 0x74, 0xba, 0x25, 0x3f,
 0x5e, 0x2d, 0x8f, 0x3f, 0x78, 0xc7, 0x51, 0x3d, 0x04, 0xa6, 0x9f, 0x3e,
 0xa6, 0xcb, 0x25, 0xbd, 0xc4, 0x82, 0xf3, 0xbd, 0x96, 0x52, 0xf5, 0xbd,
 0xaa, 0xca, 0x77, 0xbe, 0xb8, 0x09, 0xa9, 0x3d, 0xea, 0xcd, 0x2e, 0x3e,
 0x52, 0x78, 0x82, 0x3e, 0x80, 0x3b, 0x62, 0x3d, 0xdb, 0x70, 0xe0, 0xbd,
 0x90, 0x58, 0x46, 0x3e, 0x75, 0x7c, 0x49, 0xbd, 0x34, 0x93, 0xdf, 0xbd,
 0xba, 0xbd, 0x85, 0x3f, 0xe6, 0x6c, 0x05, 0x3e, 0x6a, 0xb2, 0x21, 0x3f,
 0xe0, 0xb8, 0x6d, 0xbe, 0xe2, 0xb8, 0x44, 0xbe, 0x30, 0xb2, 0x40, 0x3d,
 0x80, 0xfd, 0x5c, 0xbe, 0x97, 0x77, 0xb5, 0x3f, 0x36, 0xd1, 0xc7, 0x3e,
 0xa2, 0xe5, 0x92, 0xbe, 0xb2, 0xac, 0x4d, 0xbe, 0x2c, 0x4d, 0x66, 0x3e,
 0xb4, 0x35, 0x0f, 0x3e, 0xa7, 0x01, 0x89, 0xbc, 0x8e, 0x6a, 0x9a, 0x3c,
 0xd2, 0x2c, 0x97, 0xbe, 0x4d, 0x53, 0x94, 0xbe, 0x2c, 0x0e, 0x5b, 0xbe,
 0x9b, 0x4c, 0x3b, 0x3f, 0x84, 0x42, 0x92, 0xbe, 0xe0, 0x04, 0x57, 0x3c,
 0xca, 0xde, 0x90, 0x3e, 0xbc, 0x85, 0x79, 0x3f, 0xc0, 0xc1, 0xf4, 0x3d,
 0xec, 0xfd, 0x3d, 0x3e, 0x90, 0x07, 0x4a, 0x3f, 0xb3, 0x87, 0x62, 0xbe,
 0x4c, 0xa0, 0x56, 0x3e, 0x88, 0x50, 0x93, 0x3e, 0xcd, 0x12, 0x36, 0xbe,
 0x68, 0xfc, 0x80, 0x3e, 0x20, 0xb3, 0xd3, 0x3d, 0x39, 0x55, 0x10, 0xbf,
 0x66, 0x9c, 0x87, 0x3e, 0x24, 0x33, 0xba, 0x3d, 0x68, 0x0f, 0x8b, 0xbd,
 0xda, 0xd5, 0x2e, 0xbe, 0xd0, 0x7e, 0xf8, 0x3c, 0x3e, 0x8f, 0xd9, 0xbd,
 0xe0, 0x48, 0xed, 0xbd, 0x2a, 0xd5, 0x59, 0xbe, 0x99, 0xa6, 0x8b, 0xbe,
 0x16, 0xbb, 0x8b, 0x3e, 0x1a, 0xfe, 0x37, 0x3e, 0x83, 0xc7, 0x07, 0xbe,
 0x80, 0xe2, 0xe4, 0xbb, 0x70, 0xdd, 0x62, 0xbd, 0x2c, 0x36, 0x07, 0xbe,
 0xe2, 0x08, 0x30, 0x3e, 0xde, 0x10, 0x4c, 0xbe, 0x50, 0x26, 0x3f, 0xbd,
 0x80, 0x70, 0xfe, 0x3c, 0x25, 0x96, 0x2c, 0xbe, 0xee, 0x42, 0x84, 0x3e,
 0x26, 0xcf, 0xc4, 0xbd, 0x14, 0x4e, 0x37, 0x3e, 0x22, 0x68, 0x22, 0xbe,
 0xf0, 0x60, 0xde, 0xbc, 0xe6, 0x2f, 0x54, 0xbe, 0x9a, 0x95, 0x17, 0xbe,
 0x9f, 0xb2, 0x32, 0xbe, 0x50, 0xbb, 0x62, 0xbe, 0xe4, 0x1d, 0x70, 0xbe,
 0xb8, 0x30, 0x95, 0xbe, 0x88, 0x25, 0xcd, 0x3d, 0x60, 0x9f, 0x2c, 0x3e,
 0xe0, 0x3c, 0xd6, 0x3c, 0x40, 0xbe, 0xfb, 0xbc, 0x30, 0xeb, 0x4f, 0x3e,
 0x3a, 0x0b, 0x8e, 0x3e, 0xc4, 0x09, 0x47, 0xbe, 0x00, 0x5b, 0x97, 0xbc,
 0xd8, 0x54, 0x4a, 0x3d, 0xaa, 0xf7, 0xe5, 0xbd, 0x90, 0x9f, 0x31, 0x3d,
 0x16, 0x1f, 0x61, 0xbe, 0x48, 0xc5, 0x2b, 0xbd, 0x94, 0xbe, 0x19, 0xbe,
 0xcf, 0x72, 0x4e, 0xbe, 0x70, 0x67, 0x3b, 0x3d, 0xf0, 0x14, 0xd9, 0xbc,
 0xca, 0xa4, 0x7a, 0xbe, 0xd8, 0x9d, 0x89, 0x3d, 0x72, 0xfe, 0x84, 0x3e,
 0x64, 0x38, 0x74, 0xbe, 0xe8, 0x88, 0x91, 0x3d, 0x6a, 0x73, 0x4b, 0xbe,
 0xf4, 0xfb, 0x43, 0x3e, 0x51, 0xa3, 0x9a, 0xbe, 0xf0, 0x91, 0x23, 0x3d,
 0x70, 0x02, 0x24, 0x3d, 0xe9, 0xfb, 0x0d, 0xbe, 0x7e, 0xdb, 0x80, 0x3e,
 0x12, 0xe1, 0x13, 0x3e, 0xa4, 0x75, 0x5a, 0x3e, 0x3c, 0x9c, 0xa4, 0x3d,
 0xf0, 0xbf, 0x98, 0xbe, 0x5c, 0xa1, 0xd8, 0x3d, 0x68, 0x92, 0x9b, 0xbd,
 0xbc, 0x87, 0x61, 0xbe, 0x04, 0x40, 0xeb, 0x3d, 0xee, 0x79, 0xeb, 0xbd,
 0x90, 0x5b, 0x09, 0x3d, 0x46, 0x94, 0x80, 0x3e, 0x84, 0xfc, 0xe4, 0xbd,
 0x00, 0x18, 0x91, 0x3b, 0x98, 0xbb, 0x39, 0xbd, 0x80, 0x1a, 0xbd, 0xbc,
 0x7f, 0x0a, 0x6f, 0xbe, 0x10, 0xb2, 0x1c, 0x3d, 0xac, 0x6f, 0x92, 0xbe,
 0xd0, 0x00, 0xd8, 0xbc, 0xe8, 0x3c, 0x2c, 0x3d, 0x90, 0xae, 0x68, 0x3e,
 0x3c, 0xdf, 0xd0, 0xbd, 0xb8, 0x44, 0x45, 0xbd, 0x18, 0xe8, 0x0e, 0xbd,
 0x67, 0xaa, 0x29, 0xbe, 0x32, 0x7b, 0x3f, 0xbe, 0x60, 0xab, 0x80, 0xbd,
 0xbe, 0xf5, 0x0b, 0xbe, 0xac, 0x43, 0xed, 0xbd, 0x08, 0x81, 0x4e, 0x3e,
 0x80, 0x77, 0x8e, 0x3b, 0xb8, 0x33, 0x5c, 0xbd, 0x48, 0x79, 0x95, 0xbe,
 0x18, 0x71, 0x38, 0x3d, 0x46, 0x3e, 0x7d, 0xbe, 0xd1, 0x14, 0x14, 0xbe,
 0x55, 0xa1, 0x1b, 0xbe, 0xf0, 0x85, 0x51, 0xbe, 0x90, 0xd5, 0xe9, 0xbc,
 0xb6, 0xf2, 0x09, 0x3e, 0x5c, 0x43, 0xd0, 0xbd, 0xeb, 0x5c, 0x04, 0x3e,
 0xff, 0x7c, 0x9d, 0x3f, 0xe0, 0x0d, 0x76, 0x3e, 0xe4, 0x9d, 0xb0, 0x3d,
 0x5c, 0x6f, 0xd7, 0x3d, 0x14, 0x85, 0xe5, 0x3d, 0xac, 0xb2, 0xa7, 0x3d,
 0xcc, 0xb4, 0x8c, 0xbe, 0x34, 0xbe, 0x53, 0x3e, 0x82, 0xa4, 0xa0, 0xbe,
 0x3d, 0xef, 0x8c, 0xbe, 0x5b, 0xac, 0x13, 0xbe, 0x58, 0x7c, 0xf2, 0x3b,
 0xa2, 0x56, 0x42, 0x3e, 0x43, 0xd1, 0xbb, 0xbc, 0x76, 0xa4, 0x20, 0x3e,
 0x17, 0x02, 0x8d, 0x3f, 0x50, 0x0e, 0x62, 0x3d, 0xe9, 0x68, 0x04, 0x3f,
 0xf2, 0x50, 0x1f, 0xbe, 0x00, 0xc4, 0xcc, 0xbc, 0xf8, 0x21, 0x69, 0x3e,
 0xa9, 0x1f, 0x86, 0xbe, 0xc4, 0x5a, 0x9b, 0x3f, 0xb8, 0xbd, 0xb0, 0x3d,
 0xd3, 0x85, 0x92, 0x3d, 0x22, 0x8e, 0x94, 0xbd, 0x68, 0x59, 0xf8, 0xbd,
 0x7c, 0x03, 0x2b, 0x3e, 0x2e, 0xc6, 0x74, 0x3e, 0xe1, 0xf6, 0xe4, 0x3e,
 0x14, 0x35, 0x6e, 0xbe, 0xfb, 0x58, 0x8d, 0xbd, 0x62, 0x16, 0x0e, 0xbf,
 0xa9, 0xc1, 0x94, 0x3f, 0xb4, 0x85, 0x1e, 0x3e, 0xd8, 0xec, 0x87, 0x3e,
 0x10, 0x15, 0xcb, 0x3c, 0xcf, 0x41, 0x78, 0x3f, 0x2d, 0x32, 0x6d, 0x3e,
 0x29, 0xb0, 0x1b, 0xbe, 0x36, 0x1c, 0x82, 0x3f, 0x72, 0x40, 0xd5, 0xbd,
 0x58, 0x2a, 0x1e, 0xbd, 0x06, 0x2e, 0x75, 0xbb, 0x20, 0x88, 0xde, 0xbe,
 0x37, 0x3f, 0x89, 0xbe, 0x28, 0x84, 0x4a, 0xbd, 0x0b, 0x2b, 0x8c, 0xbe,
 0x11, 0x06, 0xcd, 0x3e, 0x43, 0xcf, 0x4f, 0x3e, 0x9f, 0x13, 0xbe, 0xbe,
 0x90, 0xee, 0xcc, 0x3c, 0x19, 0x56, 0x38, 0x3e, 0xfa, 0xc2, 0x1f, 0x3f,
 0x24, 0xca, 0x5f, 0x3e, 0x08, 0x86, 0x56, 0xbe, 0xa3, 0x77, 0x8d, 0x3e,
 0x62, 0x82, 0x93, 0xbe, 0xab, 0xf1, 0xfd, 0x3e, 0xc0, 0xa5, 0x97, 0xbc,
 0xf8, 0x79, 0xc9, 0x3d, 0x59, 0x82, 0xfe, 0x3e, 0xc0, 0x5f, 0xdd, 0x3c,
 0xa6, 0x3a, 0xf7, 0x3e, 0xce, 0x71, 0x99, 0xbd, 0xd8, 0xc7, 0xdd, 0xbe,
 0x4c, 0xca, 0x10, 0xbe, 0xdf, 0x00, 0x60, 0xbe, 0x7f, 0xd7, 0x54, 0xbe,
 0xa5, 0xca, 0x22, 0xbe, 0x70, 0xd0, 0xdb, 0x3d, 0x4a, 0x17, 0xcc, 0xbd,
 0x77, 0x20, 0xad, 0xbe, 0x61, 0x19, 0x2d, 0x3e, 0x38, 0xa4, 0x99, 0xbe,
 0x50, 0x39, 0xcc, 0x3d, 0xf8, 0x24, 0x5a, 0x3e, 0x64, 0xfc, 0x92, 0x3e,
 0x79, 0xc8, 0xb8, 0x3e, 0xaf, 0x58, 0xdf, 0x3e, 0x38, 0x26, 0x46, 0x3e,
 0x0e, 0xc6, 0x14, 0x3f, 0xd8, 0x8c, 0x0b, 0x3f, 0x7f, 0x22, 0x0e, 0xbe,
 0xb0, 0x48, 0x99, 0xbc, 0x84, 0xc8, 0x0e, 0xbe, 0x00, 0x76, 0x7c, 0x3b,
 0x3c, 0x43, 0x1f, 0xbf, 0x38, 0xe3, 0xcb, 0x3e, 0x30, 0x00, 0x44, 0x3e,
 0xa0, 0x24, 0xad, 0xbd, 0xb3, 0xd4, 0x28, 0x3f, 0x02, 0xa2, 0x98, 0x3e,
 0x02, 0x64, 0x43, 0xbb, 0x58, 0xb2, 0xa0, 0x3e, 0x62, 0x25, 0x1a, 0xbe,
 0xac, 0x9d, 0x67, 0x3e, 0x70, 0x03, 0xc8, 0x3e, 0x7e, 0xf9, 0xff, 0xff,
 0x04, 0x00, 0x00, 0x00, 0xb0, 0x04, 0x00, 0x00, 0xee, 0x25, 0xa5, 0x3e,
 0x3a, 0x0b, 0x5b, 0x3d, 0xc6, 0x6a, 0x8e, 0xbe, 0x16, 0x9b, 0x4f, 0xbe,
 0xca, 0x13, 0xd2, 0x3e, 0xf0, 0xeb, 0xc1, 0x3e, 0x1f, 0xcf, 0x07, 0xbd,
 0xa9, 0x68, 0x4e, 0xbe, 0x34, 0x34, 0xf3, 0x3e, 0x9c, 0x40, 0x60, 0xbe,
 0xaf, 0x19, 0x70, 0x3e, 0x22, 0x33, 0xb3, 0x3e, 0x9a, 0x67, 0x75, 0x3c,
 0xc4, 0x95, 0x11, 0xbe, 0xbc, 0x30, 0x10, 0x3f, 0x14, 0x85, 0x33, 0xbe,
 0x7a, 0xd2, 0xcd, 0x3d, 0x3f, 0xd0, 0x37, 0xbe, 0x4d, 0x87, 0x99, 0xbe,
 0xd0, 0x92, 0x80, 0xbe, 0x98, 0x72, 0x5f, 0x3e, 0xe0, 0x84, 0xd4, 0x3d,
 0xfa, 0x24, 0x3c, 0xbe, 0xb0, 0x9f, 0xa8, 0x3c, 0x44, 0x8a, 0xde, 0x3d,
 0xa9, 0x87, 0x66, 0x3e, 0xb6, 0xc5, 0x9c, 0x3e, 0xb3, 0x2a, 0xff, 0x3d,
 0x5d, 0xd9, 0x82, 0x3e, 0xee, 0x03, 0x4d, 0x3e, 0x28, 0x5a, 0xf0, 0x3e,
 0x52, 0xb4, 0x5b, 0xbc, 0x79, 0x74, 0x05, 0x3e, 0xaf, 0x4e, 0x75, 0x3e,
 0x70, 0x8d, 0xd5, 0x3e, 0x94, 0x71, 0xd8, 0x3e, 0x58, 0xa7, 0x93, 0xbe,
 0x10, 0x0f, 0xa0, 0x3d, 0xe8, 0x9c, 0x18, 0xbd, 0x00, 0x3d, 0x4c, 0x3e,
 0xbe, 0x09, 0x53, 0xbe, 0xe8, 0x6f, 0x25, 0xbd, 0x30, 0x85, 0x0d, 0xbe,
 0x8a, 0x67, 0x64, 0xbe, 0x28, 0x26, 0x8b, 0x3d, 0x25, 0x4d, 0x92, 0xbe,
 0xf8, 0x02, 0x5c, 0xbd, 0xe0, 0x29, 0xfd, 0x3c, 0xf2, 0xa0, 0xad, 0x3c,
 0x40, 0x42, 0x11, 0xbe, 0x39, 0x74, 0x93, 0xbe, 0x0d, 0x49, 0xf3, 0x3d,
 0x14, 0x02, 0xb4, 0x3e, 0xe9, 0x74, 0xbb, 0x3d, 0x98, 0xc6, 0x6d, 0xbd,
 0x68, 0x56, 0x6d, 0xbe, 0xd2, 0xc9, 0x24, 0x3e, 0x44, 0x14, 0x9f, 0xbe,
 0xfc, 0x7c, 0x01, 0x3e, 0x80, 0x44, 0x4f, 0x3d, 0xac, 0x7b, 0x08, 0x3f,
 0x61, 0x2d, 0x0f, 0x3e, 0x9a, 0xba, 0x50, 0xbe, 0x0c, 0x53, 0x95, 0x3e,
 0x17, 0xc2, 0x09, 0x3e, 0xdb, 0x7c, 0x2d, 0xbe, 0xd8, 0xf4, 0x4c, 0x3d,
 0x50, 0x81, 0x6e, 0x3e, 0x4d, 0x21, 0x2f, 0xbe, 0xad, 0x0e, 0x88, 0xbe,
 0x6e, 0xd9, 0x95, 0x3e, 0x18, 0xee, 0x49, 0xbe, 0xf8, 0x59, 0xa3, 0xbe,
 0x8e, 0x56, 0x0e, 0x3e, 0x39, 0xbb, 0x44, 0xbe, 0xaa, 0x8c, 0x7b, 0xbe,
 0xf2, 0xec, 0xa3, 0x3e, 0x0c, 0xf2, 0x74, 0x3e, 0xd1, 0x07, 0x06, 0x3f,
 0x65, 0xad, 0xd9, 0x3e, 0x76, 0x66, 0x57, 0xbd, 0x3c, 0xc7, 0x8a, 0xbd,
 0x40, 0x11, 0xb7, 0x3e, 0x55, 0xf0, 0x0d, 0xbe, 0x37, 0x55, 0x8b, 0xbe,
 0x76, 0x01, 0x5f, 0xbe, 0x50, 0x3d, 0x24, 0x3e, 0x68, 0x1f, 0x1e, 0x3e,
 0xdb, 0x5d, 0x71, 0xbe, 0x64, 0xcc, 0xbd, 0x3d, 0x1d, 0x67, 0xa8, 0x3e,
 0x5d, 0xa7, 0x75, 0x3e, 0x2d, 0x6e, 0x82, 0xbe, 0x73, 0x90, 0xaa, 0x3e,
 0xab, 0xa5, 0x8d, 0x3e, 0x00, 0x3b, 0xe7, 0x3e, 0x70, 0x8c, 0x50, 0x3e,
 0x4d, 0x28, 0x90, 0xbe, 0x34, 0xbd, 0xb0, 0xbd, 0x00, 0x58, 0x6c, 0xb9,
 0x00, 0x8d, 0xa0, 0x3d, 0x80, 0xc5, 0x88, 0xbb, 0x09, 0xa6, 0x80, 0xbe,
 0x04, 0xff, 0x27, 0x3e, 0x16, 0x8d, 0x04, 0x3f, 0x37, 0x43, 0x2d, 0xbe,
 0xb0, 0xdc, 0x9b, 0xbe, 0xed, 0x1b, 0x87, 0x3e, 0x00, 0x78, 0x7a, 0x3c,
 0x76, 0xf1, 0xb1, 0xbd, 0xac, 0x02, 0x69, 0xbe, 0x6e, 0x50, 0x94, 0xbe,
 0x52, 0x9e, 0x12, 0x3e, 0x20, 0x8e, 0x04, 0xbd, 0x45, 0xf8, 0x3a, 0xbe,
 0x4b, 0x6c, 0x00, 0xbe, 0x8d, 0xf7, 0xe7, 0x3e, 0x1e, 0x87, 0x38, 0x3e,
 0xe0, 0xcc, 0xf0, 0x3c, 0x61, 0xb5, 0x96, 0x3d, 0x88, 0x11, 0x10, 0x3e,
 0xa0, 0x2c, 0x40, 0xbc, 0x28, 0xd2, 0x73, 0xbe, 0xb0, 0xc8, 0x6c, 0xbd,
 0x61, 0xd1, 0x46, 0xbe, 0x80, 0xad, 0x62, 0x3c, 0x44, 0x6d, 0x24, 0x3e,
 0x34, 0x35, 0x29, 0xbe, 0xc4, 0xdb, 0x1b, 0xbe, 0xe8, 0x9d, 0x64, 0xbe,
 0x07, 0xe4, 0x5c, 0x3e, 0x8b, 0xe7, 0x48, 0x3e, 0xd4, 0xa2, 0x43, 0xbe,
 0xc4, 0x7b, 0x10, 0x3e, 0xd0, 0xb2, 0x44, 0xbd, 0x5c, 0x7d, 0x69, 0x3e,
 0x48, 0x23, 0xa2, 0xbe, 0x04, 0xbc, 0xd3, 0xbd, 0xbe, 0x89, 0x90, 0xbe,
 0x32, 0xc9, 0x3d, 0xbd, 0x00, 0xb7, 0x37, 0x3e, 0xa7, 0x7a, 0x89, 0x3d,
 0xce, 0x4b, 0x95, 0xbd, 0xa7, 0xe0, 0x0b, 0x3e, 0x09, 0x76, 0x64, 0xbe,
 0x90, 0xab, 0x4c, 0xbd, 0xb2, 0x37, 0x0a, 0x3f, 0x30, 0x21, 0x31, 0x3e,
 0x6b, 0x03, 0x9c, 0xbe, 0xde, 0x00, 0xb8, 0x3d, 0xfa, 0x32, 0xfa, 0x3d,
 0xa1, 0x6d, 0x5f, 0x3e, 0xe2, 0xa6, 0x9c, 0x3e, 0x86, 0x8d, 0x1b, 0xbe,
 0x27, 0x30, 0x65, 0x3e, 0xe5, 0x2d, 0x91, 0x3e, 0x64, 0xe7, 0x57, 0xbd,
 0x72, 0xd1, 0x5c, 0xbe, 0x89, 0xb8, 0x32, 0xbe, 0x79, 0xae, 0xc6, 0x3d,
 0x73, 0xe9, 0x98, 0x3e, 0xae, 0x5e, 0xdd, 0x3c, 0xf6, 0x61, 0x09, 0xbe,
 0xe8, 0x8b, 0x8a, 0xbd, 0xd8, 0xe4, 0x96, 0x3e, 0xc4, 0xeb, 0x0d, 0xbe,
 0x14, 0x58, 0x11, 0xbe, 0x04, 0xb6, 0x6c, 0xbe, 0xb8, 0x2f, 0x85, 0xbd,
 0xdc, 0x65, 0x3d, 0xbe, 0xec, 0xec, 0x0c, 0x3e, 0xe0, 0xab, 0xa6, 0x3c,
 0xf0, 0xf1, 0xa4, 0xbe, 0xd0, 0x7e, 0x67, 0xbe, 0x63, 0x03, 0x9e, 0xbe,
 0x24, 0xdf, 0x34, 0xbe, 0xb8, 0xfc, 0xa1, 0xbe, 0xee, 0x8c, 0x5a, 0xbe,
 0xd8, 0x0f, 0xd0, 0x3d, 0xf8, 0x82, 0xd2, 0xbd, 0xf9, 0xfe, 0x6e, 0x3e,
 0xed, 0xa6, 0x1b, 0x3e, 0xaf, 0x10, 0xde, 0x3e, 0x21, 0x8d, 0xa6, 0x3e,
 0x95, 0x16, 0x94, 0x3d, 0x43, 0x9a, 0x92, 0xba, 0x6d, 0x42, 0x57, 0x3e,
 0xb1, 0xca, 0x3c, 0x3e, 0xc3, 0x5d, 0x06, 0x3f, 0x1c, 0x72, 0xf3, 0x3d,
 0x83, 0x5b, 0x28, 0xbd, 0x31, 0x71, 0x5b, 0xbd, 0xb8, 0x9d, 0xf8, 0xbd,
 0xaa, 0xfe, 0xfe, 0xbd, 0x40, 0xee, 0xf9, 0x3d, 0x6a, 0xb0, 0x91, 0x3e,
 0xd0, 0x31, 0x8b, 0xbe, 0x16, 0x1a, 0x4b, 0xbe, 0xf7, 0x84, 0x60, 0x3e,
 0xfd, 0x21, 0xf3, 0x3e, 0xc8, 0x54, 0x03, 0xbf, 0xfd, 0x5e, 0xf0, 0x3e,
 0x39, 0x87, 0x91, 0x3e, 0x88, 0x02, 0x41, 0x3e, 0x53, 0x6c, 0xe5, 0x3e,
 0xda, 0xb0, 0x66, 0x3c, 0xa5, 0x69, 0x07, 0xbf, 0x3b, 0x94, 0xc7, 0x3e,
 0x1f, 0xcc, 0x8a, 0x3e, 0xb4, 0x3e, 0xe2, 0x3c, 0xd7, 0xfa, 0xdb, 0x3d,
 0x90, 0x52, 0xf0, 0x3d, 0xad, 0x19, 0x03, 0x3f, 0xf1, 0x58, 0xa7, 0xbe,
 0x4d, 0x4a, 0x03, 0xbe, 0x98, 0xc3, 0x0b, 0xbe, 0x10, 0x58, 0x34, 0xbd,
 0x65, 0xdf, 0x46, 0xbe, 0x9c, 0xa2, 0xcf, 0x3d, 0xed, 0xd2, 0x4f, 0xbe,
 0x6a, 0x71, 0x8c, 0x3e, 0x9c, 0xdf, 0x95, 0xbd, 0x25, 0x60, 0x4a, 0xbe,
 0x8e, 0x10, 0xf4, 0xbd, 0x2b, 0x36, 0x29, 0xbe, 0x86, 0xa0, 0x90, 0xbe,
 0x54, 0xc6, 0x44, 0x3e, 0x10, 0xfa, 0xbc, 0x3c, 0x2e, 0xa2, 0x9b, 0xbe,
 0x6a, 0x6c, 0x59, 0xbe, 0x82, 0x69, 0x70, 0xbe, 0x94, 0xf1, 0x65, 0xbe,
 0x64, 0x9b, 0x21, 0xbe, 0x50, 0xf6, 0x3a, 0x3d, 0x0a, 0x5b, 0x9b, 0xbe,
 0x03, 0xd4, 0x97, 0xbd, 0xb4, 0x89, 0x1c, 0x3f, 0x2c, 0x1e, 0xb7, 0xbd,
 0x33, 0xb5, 0x87, 0x3e, 0x5c, 0xbb, 0x43, 0xbe, 0xee, 0x53, 0x2e, 0x3e,
 0xe8, 0x1d, 0x07, 0x3e, 0x23, 0xa4, 0x35, 0x3f, 0x36, 0xcd, 0xc2, 0x3e,
 0xeb, 0x2a, 0x43, 0xbc, 0xff, 0x4f, 0xde, 0x3c, 0x85, 0x8c, 0x83, 0xbe,
 0x75, 0xa5, 0xa2, 0xbe, 0xb8, 0x3d, 0x8f, 0xbe, 0x36, 0x10, 0x7a, 0xbe,
 0x6c, 0x3a, 0xed, 0xbd, 0x18, 0x52, 0x64, 0xbd, 0x06, 0x01, 0x2a, 0xbe,
 0xad, 0x3b, 0xb6, 0x3d, 0x43, 0x63, 0x0c, 0x3f, 0x19, 0x32, 0xb7, 0xbb,
 0x51, 0x4b, 0xba, 0xbc, 0x95, 0xdf, 0x2d, 0xbe, 0x1d, 0xff, 0xf4, 0x3e,
 0xf6, 0x52, 0xbe, 0x3e, 0xcd, 0x02, 0x8c, 0xbe, 0xa5, 0xfe, 0x92, 0x3e,
 0xf8, 0x3f, 0xb7, 0xbc, 0x23, 0xe5, 0x88, 0x3e, 0xf6, 0xb8, 0x39, 0xbe,
 0x58, 0x54, 0x89, 0x3e, 0x27, 0x1b, 0x86, 0xbe, 0x17, 0xf8, 0x52, 0xbe,
 0x89, 0x02, 0x39, 0xbe, 0x01, 0xb9, 0x6c, 0xbe, 0xe8, 0x9a, 0x3f, 0xbe,
 0xc0, 0x12, 0x4a, 0x3e, 0x81, 0x58, 0x9b, 0x3e, 0xc5, 0x54, 0x67, 0x3e,
 0x9c, 0x5e, 0x59, 0x3e, 0xe6, 0x93, 0x77, 0xbe, 0xfa, 0xe4, 0x46, 0x3e,
 0x5b, 0xee, 0x99, 0x3e, 0xe8, 0x43, 0xad, 0xbe, 0x12, 0xbd, 0x83, 0x3e,
 0xfe, 0xbb, 0x96, 0xbc, 0x68, 0xda, 0x29, 0x3e, 0x28, 0x07, 0xa4, 0x3d,
 0xcf, 0x7a, 0x41, 0xbe, 0x9f, 0x11, 0x2a, 0xbe, 0x3f, 0x59, 0x8f, 0xbe,
 0x08, 0x9e, 0x25, 0xbe, 0x38, 0x2d, 0x81, 0x3d, 0x86, 0xbf, 0x95, 0x3e,
 0x20, 0xd3, 0x98, 0xbe, 0x6b, 0xfa, 0x69, 0xbe, 0xc8, 0x98, 0x42, 0x3d,
 0x96, 0x1a, 0x21, 0xbe, 0x58, 0x92, 0x65, 0xbe, 0x6a, 0xdb, 0x2b, 0x3e,
 0xf4, 0x17, 0xf5, 0xbc, 0x9e, 0xee, 0xeb, 0xbe, 0x3c, 0xd8, 0x94, 0x3e,
 0x5a, 0x3b, 0xaf, 0x3e, 0x96, 0xf4, 0x1f, 0xbe, 0x3a, 0xfe, 0xff, 0xff,
 0x04, 0x00, 0x00, 0x00, 0x3c, 0x00, 0x00, 0x00, 0xf0, 0xc6, 0xec, 0xbc,
 0xdc, 0xb1, 0x5b, 0x3e, 0x00, 0x00, 0x00, 0x00, 0xca, 0xa3, 0x5c, 0x3d,
 0x0e, 0xdc, 0xc6, 0x3d, 0x0e, 0x63, 0x75, 0x3d, 0xe0, 0x3c, 0x4f, 0xbb,
 0x74, 0xd0, 0xce, 0xbb, 0x55, 0x31, 0x95, 0x3d, 0x00, 0x00, 0x00, 0x00,
 0xdd, 0x6a, 0xf9, 0x3d, 0x00, 0x00, 0x00, 0x00, 0x00, 0x00, 0x00, 0x00,
 0xc5, 0x86, 0x30, 0x3b, 0x18, 0x37, 0xab, 0x3e, 0x82, 0xfe, 0xff, 0xff,
 0x04, 0x00, 0x00, 0x00, 0x08, 0x00, 0x00, 0x00, 0x9b, 0x3c, 0x6c, 0xbf,
 0xc2, 0x3c, 0x6c, 0x3f, 0x96, 0xfe, 0xff, 0xff, 0x04, 0x00, 0x00, 0x00,
 0xc8, 0x00, 0x00, 0x00, 0x94, 0x60, 0xc5, 0x3d, 0x53, 0xbd, 0x24, 0x3d,
 0x99, 0x2f, 0xf4, 0xbc, 0x00, 0x00, 0x00, 0x00, 0xfe, 0xb1, 0xfb, 0xbc,
 0xb2, 0xd3, 0x9f, 0x3e, 0x00, 0x00, 0x00, 0x00, 0x00, 0x00, 0x00, 0x00,
 0x92, 0x59, 0x4d, 0x3d, 0x00, 0x00, 0x00, 0x00, 0x46, 0x6a, 0x15, 0x3e,
 0x00, 0x00, 0x00, 0x00, 0x00, 0x00, 0x00, 0x00, 0x2c, 0xd2, 0x24, 0x3e,
 0x00, 0x00, 0x00, 0x00, 0x7e, 0xf9, 0x31, 0x3e, 0x00, 0x00, 0x00, 0x00,
 0xd4, 0xe1, 0x15, 0xbd, 0x00, 0x00, 0x00, 0x00, 0x10, 0x44, 0x00, 0xbe,
 0x00, 0x00, 0x00, 0x00, 0x41, 0x4b, 0x3c, 0xbd, 0x00, 0x00, 0x00, 0x00,
 0x57, 0xe2, 0x7f, 0xbc, 0xf5, 0x21, 0x9c, 0xbc, 0x7f, 0x77, 0x2c, 0x3c,
 0x73, 0x9a, 0x19, 0xbc, 0x00, 0x00, 0x00, 0x00, 0x00, 0x00, 0x00, 0x00,
 0x00, 0x00, 0x00, 0x00, 0xe3, 0x9c, 0xb5, 0x3d, 0x4a, 0x06, 0x9f, 0x3d,
 0x00, 0x00, 0x00, 0x00, 0xf8, 0x4f, 0x28, 0x3e, 0x37, 0xbe, 0x01, 0x3e,
 0x0c, 0xd1, 0x8c, 0xbc, 0x00, 0x00, 0x00, 0x00, 0x00, 0x00, 0x00, 0x00,
 0x00, 0x00, 0x00, 0x00, 0x25, 0xe4, 0x9c, 0xbc, 0x8f, 0x91, 0xec, 0x3d,
 0x00, 0x00, 0x00, 0x00, 0x99, 0xe6, 0xc0, 0xbc, 0x33, 0x82, 0x40, 0x3e,
 0x00, 0x00, 0x00, 0x00, 0xff, 0x06, 0xab, 0xbd, 0x07, 0xed, 0xad, 0x3d,
 0x00, 0x00, 0x00, 0x00, 0x00, 0x00, 0x00, 0x00, 0x0a, 0x47, 0xbc, 0x3c,
 0x94, 0xfa, 0xff, 0xff, 0x98, 0xfa, 0xff, 0xff, 0x0f, 0x00, 0x00, 0x00,
 0x4d, 0x4c, 0x49, 0x52, 0x20, 0x43, 0x6f, 0x6e, 0x76, 0x65, 0x72, 0x74,
 0x65, 0x64, 0x2e, 0x00, 0x01, 0x00, 0x00, 0x00, 0x14, 0x00, 0x00, 0x00,
 0x00, 0x00, 0x0e, 0x00, 0x18, 0x00, 0x14, 0x00, 0x10, 0x00, 0x0c, 0x00,
 0x08, 0x00, 0x04, 0x00, 0x0e, 0x00, 0x00, 0x00, 0x14, 0x00, 0x00, 0x00,
 0x1c, 0x00, 0x00, 0x00, 0x24, 0x01, 0x00, 0x00, 0x28, 0x01, 0x00, 0x00,
 0x2c, 0x01, 0x00, 0x00, 0x04, 0x00, 0x00, 0x00, 0x6d, 0x61, 0x69, 0x6e,
 0x00, 0x00, 0x00, 0x00, 0x04, 0x00, 0x00, 0x00, 0xcc, 0x00, 0x00, 0x00,
 0x84, 0x00, 0x00, 0x00, 0x50, 0x00, 0x00, 0x00, 0x14, 0x00, 0x00, 0x00,
 0x00, 0x00, 0x0e, 0x00, 0x1a, 0x00, 0x14, 0x00, 0x10, 0x00, 0x0c, 0x00,
 0x0b, 0x00, 0x04, 0x00, 0x0e, 0x00, 0x00, 0x00, 0x1c, 0x00, 0x00, 0x00,
 0x00, 0x00, 0x00, 0x09, 0x1c, 0x00, 0x00, 0x00, 0x20, 0x00, 0x00, 0x00,
 0x01, 0x00, 0x00, 0x00, 0x00, 0x00, 0x06, 0x00, 0x08, 0x00, 0x04, 0x00,
 0x06, 0x00, 0x00, 0x00, 0x00, 0x00, 0x80, 0x3f, 0x01, 0x00, 0x00, 0x00,
 0x0a, 0x00, 0x00, 0x00, 0x01, 0x00, 0x00, 0x00, 0x09, 0x00, 0x00, 0x00,
 0x9a, 0xff, 0xff, 0xff, 0x10, 0x00, 0x00, 0x00, 0x00, 0x00, 0x00, 0x08,
 0x0c, 0x00, 0x00, 0x00, 0x10, 0x00, 0x00, 0x00, 0x5c, 0xfb, 0xff, 0xff,
 0x01, 0x00, 0x00, 0x00, 0x09, 0x00, 0x00, 0x00, 0x03, 0x00, 0x00, 0x00,
 0x08, 0x00, 0x00, 0x00, 0x06, 0x00, 0x00, 0x00, 0x02, 0x00, 0x00, 0x00,
 0xca, 0xff, 0xff, 0xff, 0x10, 0x00, 0x00, 0x00, 0x00, 0x00, 0x00, 0x08,
 0x10, 0x00, 0x00, 0x00, 0x14, 0x00, 0x00, 0x00, 0xba, 0xff, 0xff, 0xff,
 0x00, 0x00, 0x00, 0x01, 0x01, 0x00, 0x00, 0x00, 0x08, 0x00, 0x00, 0x00,
 0x03, 0x00, 0x00, 0x00, 0x07, 0x00, 0x00, 0x00, 0x05, 0x00, 0x00, 0x00,
 0x03, 0x00, 0x00, 0x00, 0x00, 0x00, 0x0e, 0x00, 0x16, 0x00, 0x00, 0x00,
 0x10, 0x00, 0x0c, 0x00, 0x0b, 0x00, 0x04, 0x00, 0x0e, 0x00, 0x00, 0x00,
 0x18, 0x00, 0x00, 0x00, 0x00, 0x00, 0x00, 0x08, 0x18, 0x00, 0x00, 0x00,
 0x1c, 0x00, 0x00, 0x00, 0x00, 0x00, 0x06, 0x00, 0x08, 0x00, 0x07, 0x00,
 0x06, 0x00, 0x00, 0x00, 0x00, 0x00, 0x00, 0x01, 0x01, 0x00, 0x00, 0x00,
 0x07, 0x00, 0x00, 0x00, 0x03, 0x00, 0x00, 0x00, 0x00, 0x00, 0x00, 0x00,
 0x04, 0x00, 0x00, 0x00, 0x01, 0x00, 0x00, 0x00, 0x01, 0x00, 0x00, 0x00,
 0x0a, 0x00, 0x00, 0x00, 0x01, 0x00, 0x00, 0x00, 0x00, 0x00, 0x00, 0x00,
 0x0b, 0x00, 0x00, 0x00, 0xd0, 0x03, 0x00, 0x00, 0x6c, 0x03, 0x00, 0x00,
 0x08, 0x03, 0x00, 0x00, 0xb4, 0x02, 0x00, 0x00, 0x70, 0x02, 0x00, 0x00,
 0x28, 0x02, 0x00, 0x00, 0xe0, 0x01, 0x00, 0x00, 0x5c, 0x01, 0x00, 0x00,
 0xd0, 0x00, 0x00, 0x00, 0x5c, 0x00, 0x00, 0x00, 0x04, 0x00, 0x00, 0x00,
 0x70, 0xfc, 0xff, 0xff, 0x14, 0x00, 0x00, 0x00, 0x1c, 0x00, 0x00, 0x00,
 0x1c, 0x00, 0x00, 0x00, 0x0b, 0x00, 0x00, 0x00, 0x34, 0x00, 0x00, 0x00,
 0x02, 0x00, 0x00, 0x00, 0xff, 0xff, 0xff, 0xff, 0x02, 0x00, 0x00, 0x00,
 0x5c, 0xfc, 0xff, 0xff, 0x19, 0x00, 0x00, 0x00, 0x53, 0x74, 0x61, 0x74,
 0x65, 0x66, 0x75, 0x6c, 0x50, 0x61, 0x72, 0x74, 0x69, 0x74, 0x69, 0x6f,
 0x6e, 0x65, 0x64, 0x43, 0x61, 0x6c, 0x6c, 0x3a, 0x30, 0x00, 0x00, 0x00,
 0x02, 0x00, 0x00, 0x00, 0x01, 0x00, 0x00, 0x00, 0x02, 0x00, 0x00, 0x00,
 0xc4, 0xfc, 0xff, 0xff, 0x14, 0x00, 0x00, 0x00, 0x1c, 0x00, 0x00, 0x00,
 0x1c, 0x00, 0x00, 0x00, 0x0a, 0x00, 0x00, 0x00, 0x50, 0x00, 0x00, 0x00,
 0x02, 0x00, 0x00, 0x00, 0xff, 0xff, 0xff, 0xff, 0x02, 0x00, 0x00, 0x00,
 0xb0, 0xfc, 0xff, 0xff, 0x34, 0x00, 0x00, 0x00, 0x73, 0x65, 0x71, 0x75,
 0x65, 0x6e, 0x74, 0x69, 0x61, 0x6c, 0x2f, 0x64, 0x65, 0x6e, 0x73, 0x65,
 0x5f, 0x32, 0x2f, 0x4d, 0x61, 0x74, 0x4d, 0x75, 0x6c, 0x3b, 0x73, 0x65,
 0x71, 0x75, 0x65, 0x6e, 0x74, 0x69, 0x61, 0x6c, 0x2f, 0x64, 0x65, 0x6e,
 0x73, 0x65, 0x5f, 0x32, 0x2f, 0x42, 0x69, 0x61, 0x73, 0x41, 0x64, 0x64,
 0x00, 0x00, 0x00, 0x00, 0x02, 0x00, 0x00, 0x00, 0x01, 0x00, 0x00, 0x00,
 0x02, 0x00, 0x00, 0x00, 0x34, 0xfd, 0xff, 0xff, 0x14, 0x00, 0x00, 0x00,
 0x1c, 0x00, 0x00, 0x00, 0x1c, 0x00, 0x00, 0x00, 0x09, 0x00, 0x00, 0x00,
 0x68, 0x00, 0x00, 0x00, 0x02, 0x00, 0x00, 0x00, 0xff, 0xff, 0xff, 0xff,
 0x0f, 0x00, 0x00, 0x00, 0x20, 0xfd, 0xff, 0xff, 0x4c, 0x00, 0x00, 0x00,
 0x73, 0x65, 0x71, 0x75, 0x65, 0x6e, 0x74, 0x69, 0x61, 0x6c, 0x2f, 0x64,
 0x65, 0x6e, 0x73, 0x65, 0x5f, 0x31, 0x2f, 0x4d, 0x61, 0x74, 0x4d, 0x75,
 0x6c, 0x3b, 0x73, 0x65, 0x71, 0x75, 0x65, 0x6e, 0x74, 0x69, 0x61, 0x6c,
 0x2f, 0x64, 0x65, 0x6e, 0x73, 0x65, 0x5f, 0x31, 0x2f, 0x52, 0x65, 0x6c,
 0x75, 0x3b, 0x73, 0x65, 0x71, 0x75, 0x65, 0x6e, 0x74, 0x69, 0x61, 0x6c,
 0x2f, 0x64, 0x65, 0x6e, 0x73, 0x65, 0x5f, 0x31, 0x2f, 0x42, 0x69, 0x61,
 0x73, 0x41, 0x64, 0x64, 0x00, 0x00, 0x00, 0x00, 0x02, 0x00, 0x00, 0x00,
 0x01, 0x00, 0x00, 0x00, 0x0f, 0x00, 0x00, 0x00, 0xbc, 0xfd, 0xff, 0xff,
 0x14, 0x00, 0x00, 0x00, 0x1c, 0x00, 0x00, 0x00, 0x1c, 0x00, 0x00, 0x00,
 0x08, 0x00, 0x00, 0x00, 0x60, 0x00, 0x00, 0x00, 0x02, 0x00, 0x00, 0x00,
 0xff, 0xff, 0xff, 0xff, 0x32, 0x00, 0x00, 0x00, 0xa8, 0xfd, 0xff, 0xff,
 0x46, 0x00, 0x00, 0x00, 0x73, 0x65, 0x71, 0x75, 0x65, 0x6e, 0x74, 0x69,
 0x61, 0x6c, 0x2f, 0x64, 0x65, 0x6e, 0x73, 0x65, 0x2f, 0x4d, 0x61, 0x74,
 0x4d, 0x75, 0x6c, 0x3b, 0x73, 0x65, 0x71, 0x75, 0x65, 0x6e, 0x74, 0x69,
 0x61, 0x6c, 0x2f, 0x64, 0x65, 0x6e, 0x73, 0x65, 0x2f, 0x52, 0x65, 0x6c,
 0x75, 0x3b, 0x73, 0x65, 0x71, 0x75, 0x65, 0x6e, 0x74, 0x69, 0x61, 0x6c,
 0x2f, 0x64, 0x65, 0x6e, 0x73, 0x65, 0x2f, 0x42, 0x69, 0x61, 0x73, 0x41,
 0x64, 0x64, 0x00, 0x00, 0x02, 0x00, 0x00, 0x00, 0x01, 0x00, 0x00, 0x00,
 0x32, 0x00, 0x00, 0x00, 0x96, 0xfe, 0xff, 0xff, 0x10, 0x00, 0x00, 0x00,
 0x10, 0x00, 0x00, 0x00, 0x07, 0x00, 0x00, 0x00, 0x28, 0x00, 0x00, 0x00,
 0x18, 0xfe, 0xff, 0xff, 0x19, 0x00, 0x00, 0x00, 0x73, 0x65, 0x71, 0x75,
 0x65, 0x6e, 0x74, 0x69, 0x61, 0x6c, 0x2f, 0x64, 0x65, 0x6e, 0x73, 0x65,
 0x5f, 0x32, 0x2f, 0x4d, 0x61, 0x74, 0x4d, 0x75, 0x6c, 0x00, 0x00, 0x00,
 0x02, 0x00, 0x00, 0x00, 0x02, 0x00, 0x00, 0x00, 0x0f, 0x00, 0x00, 0x00,
 0xda, 0xfe, 0xff, 0xff, 0x10, 0x00, 0x00, 0x00, 0x10, 0x00, 0x00, 0x00,
 0x06, 0x00, 0x00, 0x00, 0x28, 0x00, 0x00, 0x00, 0x5c, 0xfe, 0xff, 0xff,
 0x19, 0x00, 0x00, 0x00, 0x73, 0x65, 0x71, 0x75, 0x65, 0x6e, 0x74, 0x69,
 0x61, 0x6c, 0x2f, 0x64, 0x65, 0x6e, 0x73, 0x65, 0x5f, 0x31, 0x2f, 0x4d,
 0x61, 0x74, 0x4d, 0x75, 0x6c, 0x00, 0x00, 0x00, 0x02, 0x00, 0x00, 0x00,
 0x0f, 0x00, 0x00, 0x00, 0x32, 0x00, 0x00, 0x00, 0x1e, 0xff, 0xff, 0xff,
 0x10, 0x00, 0x00, 0x00, 0x10, 0x00, 0x00, 0x00, 0x05, 0x00, 0x00, 0x00,
 0x24, 0x00, 0x00, 0x00, 0xa0, 0xfe, 0xff, 0xff, 0x17, 0x00, 0x00, 0x00,
 0x73, 0x65, 0x71, 0x75, 0x65, 0x6e, 0x74, 0x69, 0x61, 0x6c, 0x2f, 0x64,
 0x65, 0x6e, 0x73, 0x65, 0x2f, 0x4d, 0x61, 0x74, 0x4d, 0x75, 0x6c, 0x00,
 0x02, 0x00, 0x00, 0x00, 0x32, 0x00, 0x00, 0x00, 0x06, 0x00, 0x00, 0x00,
 0x5e, 0xff, 0xff, 0xff, 0x10, 0x00, 0x00, 0x00, 0x10, 0x00, 0x00, 0x00,
 0x04, 0x00, 0x00, 0x00, 0x38, 0x00, 0x00, 0x00, 0xe0, 0xfe, 0xff, 0xff,
 0x29, 0x00, 0x00, 0x00, 0x73, 0x65, 0x71, 0x75, 0x65, 0x6e, 0x74, 0x69,
 0x61, 0x6c, 0x2f, 0x64, 0x65, 0x6e, 0x73, 0x65, 0x5f, 0x31, 0x2f, 0x42,
 0x69, 0x61, 0x73, 0x41, 0x64, 0x64, 0x2f, 0x52, 0x65, 0x61, 0x64, 0x56,
 0x61, 0x72, 0x69, 0x61, 0x62, 0x6c, 0x65, 0x4f, 0x70, 0x00, 0x00, 0x00,
 0x01, 0x00, 0x00, 0x00, 0x0f, 0x00, 0x00, 0x00, 0xae, 0xff, 0xff, 0xff,
 0x10, 0x00, 0x00, 0x00, 0x10, 0x00, 0x00, 0x00, 0x03, 0x00, 0x00, 0x00,
 0x38, 0x00, 0x00, 0x00, 0x30, 0xff, 0xff, 0xff, 0x29, 0x00, 0x00, 0x00,
 0x73, 0x65, 0x71, 0x75, 0x65, 0x6e, 0x74, 0x69, 0x61, 0x6c, 0x2f, 0x64,
 0x65, 0x6e, 0x73, 0x65, 0x5f, 0x32, 0x2f, 0x42, 0x69, 0x61, 0x73, 0x41,
 0x64, 0x64, 0x2f, 0x52, 0x65, 0x61, 0x64, 0x56, 0x61, 0x72, 0x69, 0x61,
 0x62, 0x6c, 0x65, 0x4f, 0x70, 0x00, 0x00, 0x00, 0x01, 0x00, 0x00, 0x00,
 0x02, 0x00, 0x00, 0x00, 0x00, 0x00, 0x0e, 0x00, 0x14, 0x00, 0x10, 0x00,
 0x00, 0x00, 0x0c, 0x00, 0x08, 0x00, 0x04, 0x00, 0x0e, 0x00, 0x00, 0x00,
 0x10, 0x00, 0x00, 0x00, 0x10, 0x00, 0x00, 0x00, 0x02, 0x00, 0x00, 0x00,
 0x34, 0x00, 0x00, 0x00, 0x90, 0xff, 0xff, 0xff, 0x27, 0x00, 0x00, 0x00,
 0x73, 0x65, 0x71, 0x75, 0x65, 0x6e, 0x74, 0x69, 0x61, 0x6c, 0x2f, 0x64,
 0x65, 0x6e, 0x73, 0x65, 0x2f, 0x42, 0x69, 0x61, 0x73, 0x41, 0x64, 0x64,
 0x2f, 0x52, 0x65, 0x61, 0x64, 0x56, 0x61, 0x72, 0x69, 0x61, 0x62, 0x6c,
 0x65, 0x4f, 0x70, 0x00, 0x01, 0x00, 0x00, 0x00, 0x32, 0x00, 0x00, 0x00,
 0x14, 0x00, 0x18, 0x00, 0x14, 0x00, 0x00, 0x00, 0x10, 0x00, 0x0c, 0x00,
 0x08, 0x00, 0x00, 0x00, 0x00, 0x00, 0x04, 0x00, 0x14, 0x00, 0x00, 0x00,
 0x14, 0x00, 0x00, 0x00, 0x20, 0x00, 0x00, 0x00, 0x20, 0x00, 0x00, 0x00,
 0x01, 0x00, 0x00, 0x00, 0x3c, 0x00, 0x00, 0x00, 0x02, 0x00, 0x00, 0x00,
 0xff, 0xff, 0xff, 0xff, 0x06, 0x00, 0x00, 0x00, 0x04, 0x00, 0x04, 0x00,
 0x04, 0x00, 0x00, 0x00, 0x1d, 0x00, 0x00, 0x00, 0x73, 0x65, 0x72, 0x76,
 0x69, 0x6e, 0x67, 0x5f, 0x64, 0x65, 0x66, 0x61, 0x75, 0x6c, 0x74, 0x5f,
 0x64, 0x65, 0x6e, 0x73, 0x65, 0x5f, 0x69, 0x6e, 0x70, 0x75, 0x74, 0x3a,
 0x30, 0x00, 0x00, 0x00, 0x02, 0x00, 0x00, 0x00, 0x01, 0x00, 0x00, 0x00,
 0x06, 0x00, 0x00, 0x00, 0x02, 0x00, 0x00, 0x00, 0x20, 0x00, 0x00, 0x00,
 0x04, 0x00, 0x00, 0x00, 0xf4, 0xff, 0xff, 0xff, 0x19, 0x00, 0x00, 0x00,
 0x00, 0x00, 0x00, 0x19, 0x0c, 0x00, 0x0c, 0x00, 0x0b, 0x00, 0x00, 0x00,
 0x00, 0x00, 0x04, 0x00, 0x0c, 0x00, 0x00, 0x00, 0x09, 0x00, 0x00, 0x00,
 0x00, 0x00, 0x00, 0x09
};