unsigned char model[] = {
 0x1c, 0x00, 0x00, 0x00, 0x54, 0x46, 0x4c, 0x33, 0x14, 0x00, 0x20, 0x00,
 0x1c, 0x00, 0x18, 0x00, 0x14, 0x00, 0x10, 0x00, 0x0c, 0x00, 0x00, 0x00,
 0x08, 0x00, 0x04, 0x00, 0x14, 0x00, 0x00, 0x00, 0x1c, 0x00, 0x00, 0x00,
 0x90, 0x00, 0x00, 0x00, 0xe8, 0x00, 0x00, 0x00, 0xec, 0x13, 0x00, 0x00,
 0xfc, 0x13, 0x00, 0x00, 0x80, 0x19, 0x00, 0x00, 0x03, 0x00, 0x00, 0x00,
 0x01, 0x00, 0x00, 0x00, 0x10, 0x00, 0x00, 0x00, 0x00, 0x00, 0x0a, 0x00,
 0x10, 0x00, 0x0c, 0x00, 0x08, 0x00, 0x04, 0x00, 0x0a, 0x00, 0x00, 0x00,
 0x0c, 0x00, 0x00, 0x00, 0x1c, 0x00, 0x00, 0x00, 0x38, 0x00, 0x00, 0x00,
 0x0f, 0x00, 0x00, 0x00, 0x73, 0x65, 0x72, 0x76, 0x69, 0x6e, 0x67, 0x5f,
 0x64, 0x65, 0x66, 0x61, 0x75, 0x6c, 0x74, 0x00, 0x01, 0x00, 0x00, 0x00,
 0x04, 0x00, 0x00, 0x00, 0x98, 0xff, 0xff, 0xff, 0x0a, 0x00, 0x00, 0x00,
 0x04, 0x00, 0x00, 0x00, 0x07, 0x00, 0x00, 0x00, 0x64, 0x65, 0x6e, 0x73,
 0x65, 0x5f, 0x32, 0x00, 0x01, 0x00, 0x00, 0x00, 0x04, 0x00, 0x00, 0x00,
 0xf6, 0xeb, 0xff, 0xff, 0x04, 0x00, 0x00, 0x00, 0x0b, 0x00, 0x00, 0x00,
 0x64, 0x65, 0x6e, 0x73, 0x65, 0x5f, 0x69, 0x6e, 0x70, 0x75, 0x74, 0x00,
 0x02, 0x00, 0x00, 0x00, 0x34, 0x00, 0x00, 0x00, 0x04, 0x00, 0x00, 0x00,
 0xdc, 0xff, 0xff, 0xff, 0x0d, 0x00, 0x00, 0x00, 0x04, 0x00, 0x00, 0x00,
 0x13, 0x00, 0x00, 0x00, 0x43, 0x4f, 0x4e, 0x56, 0x45, 0x52, 0x53, 0x49,
 0x4f, 0x4e, 0x5f, 0x4d, 0x45, 0x54, 0x41, 0x44, 0x41, 0x54, 0x41, 0x00,
 0x08, 0x00, 0x0c, 0x00, 0x08, 0x00, 0x04, 0x00, 0x08, 0x00, 0x00, 0x00,
 0x0c, 0x00, 0x00, 0x00, 0x04, 0x00, 0x00, 0x00, 0x13, 0x00, 0x00, 0x00,
 0x6d, 0x69, 0x6e, 0x5f, 0x72, 0x75, 0x6e, 0x74, 0x69, 0x6d, 0x65, 0x5f,
 0x76, 0x65, 0x72, 0x73, 0x69, 0x6f, 0x6e, 0x00, 0x0e, 0x00, 0x00, 0x00,
 0x00, 0x13, 0x00, 0x00, 0xf8, 0x12, 0x00, 0x00, 0x20, 0x12, 0x00, 0x00,
 0x08, 0x12, 0x00, 0x00, 0xbc, 0x11, 0x00, 0x00, 0xfc, 0x0c, 0x00, 0x00,
 0x34, 0x01, 0x00, 0x00, 0xac, 0x00, 0x00, 0x00, 0xa4, 0x00, 0x00, 0x00,
 0x9c, 0x00, 0x00, 0x00, 0x94, 0x00, 0x00, 0x00, 0x8c, 0x00, 0x00, 0x00,
 0x6c, 0x00, 0x00, 0x00, 0x04, 0x00, 0x00, 0x00, 0xa6, 0xec, 0xff, 0xff,
 0x04, 0x00, 0x00, 0x00, 0x58, 0x00, 0x00, 0x00, 0x0c, 0x00, 0x00, 0x00,
 0x08, 0x00, 0x0e, 0x00, 0x08, 0x00, 0x04, 0x00, 0x08, 0x00, 0x00, 0x00,
 0x10, 0x00, 0x00, 0x00, 0x28, 0x00, 0x00, 0x00, 0x00, 0x00, 0x06, 0x00,
 0x08, 0x00, 0x04, 0x00, 0x06, 0x00, 0x00, 0x00, 0x04, 0x00, 0x00, 0x00,
 0x01, 0x00, 0x00, 0x00, 0xea, 0x03, 0x00, 0x00, 0x00, 0x00, 0x0a, 0x00,
 0x10, 0x00, 0x0c, 0x00, 0x08, 0x00, 0x04, 0x00, 0x0a, 0x00, 0x00, 0x00,
 0x02, 0x00, 0x00, 0x00, 0x02, 0x00, 0x00, 0x00, 0x04, 0x00, 0x00, 0x00,
 0x05, 0x00, 0x00, 0x00, 0x32, 0x2e, 0x39, 0x2e, 0x31, 0x00, 0x00, 0x00,
 0x0a, 0xed, 0xff, 0xff, 0x04, 0x00, 0x00, 0x00, 0x10, 0x00, 0x00, 0x00,
 0x31, 0x2e, 0x35, 0x2e, 0x30, 0x00, 0x00, 0x00, 0x00, 0x00, 0x00, 0x00,
 0x00, 0x00, 0x00, 0x00, 0x50, 0xe8, 0xff, 0xff, 0x54, 0xe8, 0xff, 0xff,
 0x58, 0xe8, 0xff, 0xff, 0x5c, 0xe8, 0xff, 0xff, 0x36, 0xed, 0xff, 0xff,
 0x04, 0x00, 0x00, 0x00, 0x78, 0x00, 0x00, 0x00, 0x70, 0x80, 0xa6, 0xbf,
 0x18, 0x1f, 0x84, 0xbd, 0xf1, 0xd3, 0xd0, 0x3e, 0x98, 0x1b, 0x21, 0x3f,
 0x98, 0x27, 0xbc, 0xbd, 0x57, 0x0a, 0x9a, 0xbf, 0x2e, 0xda, 0xa3, 0xbf,
 0x4a, 0x56, 0xab, 0xbf, 0x9c, 0xac, 0xcc, 0xbd, 0xff, 0xd8, 0x97, 0xbf,
 0xff, 0xa5, 0x1c, 0x3f, 0x72, 0xd9, 0xf2, 0x3e, 0x03, 0x87, 0x79, 0x3f,
 0x0a, 0x15, 0x98, 0x3f, 0x98, 0x2d, 0x14, 0xbe, 0xc4, 0xde, 0x82, 0x3e,
 0x60, 0x1d, 0xed, 0x3e, 0x55, 0xc5, 0x51, 0x3e, 0x16, 0x1c, 0x94, 0xbf,
 0x04, 0x90, 0xf9, 0x3e, 0xa0, 0xa6, 0x8e, 0x3f, 0xb6, 0x63, 0xb0, 0x3f,
 0x4e, 0xc2, 0x48, 0x3f, 0xbc, 0x8e, 0x7a, 0x3e, 0xc5, 0xf0, 0x8b, 0x3f,
 0xed, 0x83, 0x27, 0xbf, 0x21, 0xdd, 0x0f, 0xbe, 0x26, 0x2c, 0x8d, 0xbf,
 0x87, 0xfb, 0x78, 0xbf, 0xb2, 0x3c, 0xeb, 0xbe, 0xba, 0xed, 0xff, 0xff,
 0x04, 0x00, 0x00, 0x00, 0xb8, 0x0b, 0x00, 0x00, 0xc6, 0x6a, 0x8f, 0xbd,
 0x68, 0x80, 0x26, 0x3f, 0x54, 0x36, 0x85, 0x3d, 0xb7, 0x96, 0x1b, 0xbe,
 0x80, 0x87, 0x55, 0x3f, 0xa3, 0x5a, 0xb7, 0x3e, 0xa1, 0x16, 0xf7, 0x3c,
 0x00, 0xf0, 0x08, 0xbb, 0xc0, 0x89, 0x91, 0x3d, 0xaa, 0x62, 0x86, 0x3e,
 0xb0, 0x49, 0x48, 0xbe, 0x32, 0x59, 0x01, 0x3e, 0xb4, 0x73, 0x8c, 0x3e,
 0xa5, 0x06, 0x26, 0xba, 0xc9, 0xe2, 0x8f, 0xbe, 0x94, 0xb0, 0xe7, 0x3d,
 0x76, 0x5e, 0x74, 0xbe, 0x08, 0x9d, 0x4c, 0x3e, 0xed, 0x9b, 0x6c, 0xbd,
 0x7e, 0x14, 0x0a, 0xbe, 0x88, 0x9b, 0x0c, 0xbd, 0x07, 0xae, 0x21, 0xbc,
 0x4f, 0xc4, 0xa2, 0xbd, 0xf8, 0xb8, 0x95, 0xbe, 0x2c, 0x9c, 0xbc, 0xbd,
 0x26, 0xd2, 0x28, 0xbe, 0xe5, 0xd2, 0x85, 0x3e, 0x3f, 0x50, 0x3e, 0x3f,
 0xf1, 0xd3, 0x24, 0x3e, 0x06, 0xd4, 0x83, 0xbe, 0xda, 0xd8, 0x43, 0xbf,
 0x4e, 0xc7, 0x87, 0xbe, 0x3b, 0x1c, 0x43, 0xbf, 0x95, 0xe4, 0x8b, 0x3c,
 0xe6, 0xc3, 0x35, 0xbf, 0xe6, 0x6c, 0x33, 0xbe, 0xce, 0x2d, 0xdf, 0xbd,
 0x26, 0x1d, 0x60, 0xbd, 0x1a, 0xa7, 0x0a, 0xbe, 0x6d, 0xd2, 0x96, 0x3d,
 0x85, 0x0e, 0x84, 0x3f, 0x44, 0x83, 0xdc, 0xbd, 0x70, 0xab, 0xe0, 0x3d,
 0x02, 0xba, 0x7c, 0x3f, 0x41, 0x78, 0xd8, 0xbe, 0xc0, 0x5c, 0xee, 0xbd,
 0x7f, 0xbf, 0xaa, 0x3d, 0xd4, 0xd8, 0x7f, 0x3e, 0xc9, 0x74, 0x24, 0xbe,
 0x9c, 0x05, 0x10, 0xbe, 0x2c, 0x2c, 0x23, 0x3e, 0x48, 0x16, 0xc1, 0x3d,
 0xf8, 0x36, 0x22, 0x3d, 0x20, 0xdf, 0x75, 0xbe, 0x19, 0x0d, 0x4d, 0xbe,
 0x3a, 0x15, 0x13, 0x3e, 0x28, 0x47, 0x70, 0xbe, 0xe0, 0xcc, 0x60, 0x3d,
 0x16, 0x1e, 0x19, 0x3e, 0xd0, 0x42, 0x34, 0x3e, 0x7d, 0xe7, 0x35, 0xbe,
 0xf0, 0x65, 0xde, 0x3c, 0xe6, 0x58, 0x9a, 0xbe, 0x6f, 0x3d, 0x36, 0xbe,
 0x28, 0x3f, 0x64, 0x3d, 0x5c, 0x09, 0x98, 0xbd, 0xfc, 0x92, 0x43, 0xbe,
 0xe2, 0xd0, 0x96, 0x3e, 0x09, 0x18, 0x41, 0xbe, 0xdc, 0x5b, 0x75, 0x3e,
 0x0c, 0x20, 0x83, 0xbe, 0xa0, 0xf4, 0xb8, 0xbc, 0x18, 0xea, 0x46, 0xbe,
 0x3f, 0xa8, 0x47, 0xbe, 0x33, 0xc9, 0x02, 0xbe, 0x9c, 0x40, 0x6e, 0xbd,
 0x80, 0xda, 0x1c, 0xbb, 0x97, 0x6d, 0x25, 0xbe, 0x18, 0x11, 0xd5, 0xbd,
 0x60, 0xbc, 0x63, 0x3c, 0x78, 0xa8, 0x7f, 0x3d, 0xfb, 0x17, 0x57, 0xbe,
 0xd6, 0x83, 0x05, 0x3e, 0x28, 0x97, 0x03, 0xbd, 0x1c, 0x8c, 0x80, 0x3d,
 0x1e, 0x28, 0x6a, 0xbe, 0xc8, 0x08, 0x01, 0x3e, 0x7c, 0x16, 0x9c, 0x3d,
 0x34, 0x68, 0x95, 0x3d, 0x1e, 0x2d, 0x38, 0x3e, 0x11, 0xde, 0x4f, 0xbe,
 0x6e, 0xf9, 0x90, 0xbd, 0xe4, 0x25, 0xb7, 0xbd, 0xb0, 0xcf, 0x58, 0xbe,
 0x21, 0x28, 0x87, 0xbe, 0x7c, 0xef, 0xfb, 0xbd, 0x8c, 0xe6, 0xad, 0x3d,
 0xe8, 0xfe, 0x53, 0x3e, 0xf4, 0x23, 0x9e, 0xbd, 0xfb, 0x4b, 0x7a, 0xbe,
 0x54, 0x2c, 0x6c, 0x3e, 0x7a, 0xe6, 0x34, 0x3d, 0xe8, 0xbe, 0x6c, 0xbe,
 0x77, 0xc3, 0x2d, 0x3e, 0x9b, 0x17, 0xb7, 0xbd, 0x76, 0x54, 0xa2, 0x3d,
 0xcc, 0x68, 0x66, 0xbe, 0xa0, 0x80, 0xbc, 0xbd, 0x10, 0x2c, 0x1f, 0x3d,
 0x9b, 0x8e, 0x5c, 0xbe, 0x1c, 0x14, 0x99, 0x3d, 0xa4, 0x4f, 0x84, 0xbe,
 0x30, 0x69, 0x56, 0xbe, 0x41, 0x53, 0x06, 0xbc, 0xe7, 0xdf, 0x12, 0xbe,
 0xe0, 0x17, 0xf1, 0xbc, 0x42, 0x6d, 0x16, 0x3e, 0xc4, 0x70, 0x09, 0x3e,
 0x1f, 0x5f, 0x16, 0x3e, 0x6c, 0x8b, 0x18, 0xbd, 0xfe, 0x26, 0xcf, 0xbd,
 0x8c, 0xb8, 0x1d, 0x3e, 0x87, 0x0f, 0x89, 0xbe, 0xa0, 0x8e, 0x61, 0xbd,
 0xa8, 0xb9, 0x99, 0x3e, 0x9a, 0x2f, 0xa2, 0xbd, 0xcc, 0x27, 0x8c, 0xbd,
 0x3e, 0xcb, 0x8c, 0xbe, 0x9d, 0x27, 0x94, 0xbe, 0xc0, 0x6e, 0xbd, 0xbb,
 0xef, 0x06, 0x4f, 0xbd, 0xb7, 0x05, 0x3f, 0xbe, 0xae, 0x68, 0x92, 0x3e,
 0xe3, 0xa2, 0x72, 0x3b, 0x09, 0xfa, 0x8b, 0xbe, 0xa8, 0x86, 0x12, 0xbe,
 0xc0, 0xd4, 0x70, 0x3d, 0x9f, 0xf1, 0x90, 0xbc, 0x80, 0x46, 0x4a, 0x3c,
 0x7b, 0x9b, 0x24, 0x3e, 0xbb, 0xe7, 0x40, 0x3d, 0xb0, 0x25, 0xca, 0x3c,
 0x7a, 0x09, 0x8d, 0x3e, 0x61, 0x7c, 0x1e, 0x3e, 0x08, 0x94, 0xa0, 0xbc,
 0x80, 0xd9, 0x85, 0x3c, 0xef, 0xd9, 0x0d, 0xbe, 0x30, 0xf3, 0xca, 0xbc,
 0x37, 0xea, 0xe3, 0x3d, 0x80, 0x32, 0x96, 0x3c, 0xea, 0x90, 0x85, 0x3e,
 0x84, 0x65, 0x40, 0xbf, 0x3a, 0x08, 0x28, 0x3e, 0xb1, 0x69, 0x95, 0x3e,
 0xac, 0x29, 0xa1, 0xbe, 0x38, 0xef, 0xe1, 0x3d, 0x50, 0x98, 0x4d, 0x3d,
 0x36, 0x75, 0x41, 0xbe, 0x12, 0x91, 0x8b, 0x3e, 0xc0, 0xc6, 0xc2, 0xbc,
 0xde, 0xea, 0x63, 0xbe, 0xe8, 0x4d, 0x04, 0x3e, 0xbb, 0x2b, 0x85, 0xbc,
 0x9a, 0x8e, 0xc5, 0x3d, 0xb1, 0xf4, 0x8d, 0xbe, 0xd4, 0x75, 0x53, 0x3e,
 0x36, 0xa0, 0x87, 0x3e, 0x18, 0x49, 0x94, 0xbd, 0x40, 0x80, 0x56, 0x3e,
 0x3d, 0x5f, 0x88, 0x3e, 0x2c, 0xf4, 0x83, 0xbe, 0x26, 0x06, 0x4c, 0xbe,
 0xb1, 0x13, 0x8a, 0x3d, 0x66, 0xe0, 0x11, 0x3e, 0x19, 0xf9, 0x08, 0x3e,
 0xa3, 0x88, 0x68, 0x3e, 0xa5, 0x27, 0x2e, 0x3e, 0x61, 0x12, 0x88, 0xbf,
 0x2e, 0x53, 0xfa, 0xbd, 0x20, 0xb9, 0x21, 0x3d, 0x75, 0x3e, 0x39, 0x3f,
 0x6a, 0xfb, 0x82, 0x3e, 0xf6, 0xe3, 0x69, 0x3f, 0xd1, 0x52, 0x17, 0x3f,
 0x43, 0x7b, 0x84, 0x3f, 0x5c, 0xf2, 0xce, 0x3d, 0x00, 0xc2, 0x52, 0x3a,
 0x3a, 0x18, 0x5d, 0xbe, 0xb0, 0x3a, 0x1b, 0x3d, 0xe4, 0x4d, 0x54, 0x3e,
 0x24, 0x5b, 0x91, 0xbf, 0x88, 0x02, 0x97, 0x3e, 0x22, 0x85, 0xbf, 0xbd,
 0x23, 0x99, 0x82, 0xbf, 0x77, 0x4c, 0x2d, 0x3f, 0xa0, 0x7f, 0x0d, 0xbd,
 0xb8, 0xa7, 0x46, 0x3e, 0xf2, 0xfb, 0x77, 0xbe, 0x43, 0x20, 0x1b, 0x3e,
 0x8c, 0xe1, 0x78, 0xbe, 0xb0, 0x40, 0xb4, 0x3d, 0xd4, 0x56, 0x96, 0xbe,
 0xd8, 0x7a, 0x56, 0x3e, 0xef, 0xb3, 0x94, 0xbe, 0x9d, 0x79, 0x04, 0xbe,
 0xa0, 0xb0, 0x86, 0x3d, 0x15, 0xeb, 0x7e, 0xbe, 0xee, 0xe1, 0x6d, 0xbe,
 0x18, 0x19, 0xec, 0xbd, 0xe0, 0xee, 0x4b, 0xbc, 0x9e, 0xc8, 0x95, 0x3e,
 0xa0, 0x51, 0x52, 0x3d, 0xd0, 0xe5, 0x52, 0x3e, 0x40, 0xaf, 0x49, 0x3d,
 0xbb, 0x8e, 0x4f, 0xbe, 0x8c, 0x55, 0xb5, 0x3d, 0x1e, 0x1b, 0x97, 0x3e,
 0x30, 0xa7, 0xcc, 0xbc, 0x78, 0x3f, 0xab, 0x3d, 0x34, 0x24, 0x15, 0x3e,
 0xc0, 0xbb, 0xf1, 0x3b, 0x50, 0xc0, 0xce, 0xbc, 0x58, 0x4d, 0x31, 0xbe,
 0x6a, 0x7b, 0x2f, 0xbe, 0x4c, 0xf3, 0x02, 0x3e, 0x2c, 0x60, 0x13, 0xbe,
 0xa8, 0x4e, 0xe9, 0x3d, 0xe4, 0x81, 0xf2, 0x3d, 0x98, 0xa2, 0x71, 0xbe,
 0x34, 0x42, 0x81, 0x3e, 0x78, 0x8e, 0x5c, 0x3d, 0xc8, 0x8a, 0x6e, 0x3e,
 0xf6, 0x71, 0x37, 0xbe, 0x7b, 0xa6, 0x8d, 0xbe, 0x58, 0x20, 0xc4, 0x3d,
 0x54, 0xfe, 0x21, 0x3e, 0x08, 0xa8, 0x51, 0xbd, 0x70, 0xb3, 0x44, 0xbd,
 0x50, 0xc1, 0x69, 0xbe, 0x7e, 0x7e, 0xa3, 0xbd, 0xd7, 0x30, 0x95, 0xbe,
 0x00, 0x4f, 0x65, 0xbd, 0xb0, 0xb2, 0x72, 0x3e, 0xf0, 0x73, 0x0f, 0x3d,
 0x0b, 0x59, 0x03, 0xbe, 0xc0, 0x40, 0x91, 0xbc, 0x72, 0x13, 0x5a, 0xbe,
 0x3a, 0x55, 0x31, 0x3e, 0x98, 0x62, 0x44, 0x3e, 0x04, 0xfa, 0xaa, 0x3d,
 0x24, 0xef, 0x1a, 0x3e, 0x91, 0x60, 0x3a, 0x3f, 0xed, 0xb9, 0x12, 0xbe,
 0x90, 0xc2, 0xb1, 0x3d, 0x1c, 0xb0, 0x40, 0x3f, 0x18, 0xea, 0x88, 0x3e,
 0xe9, 0x0a, 0xe3, 0xbe, 0x6c, 0xd8, 0x99, 0xbe, 0x28, 0x24, 0x6d, 0x3d,
 0xc0, 0xd7, 0xae, 0xbb, 0x02, 0xaf, 0x75, 0xbe, 0x54, 0xa4, 0x92, 0x3d,
 0xff, 0x4d, 0xe4, 0x3e, 0x37, 0x0c, 0x98, 0xbe, 0x9f, 0x50, 0x33, 0x3e,
 0xe4, 0x06, 0xfe, 0x3d, 0x2e, 0x93, 0x23, 0x3e, 0x66, 0x50, 0x61, 0xbe,
 0x71, 0xdd, 0x03, 0x3e, 0xc5, 0xd1, 0xed, 0xbd, 0x80, 0x2a, 0x56, 0x3e,
 0xa1, 0xef, 0x26, 0x3e, 0x86, 0x77, 0x9a, 0xbe, 0x56, 0xd1, 0x96, 0x3c,
 0xe6, 0x18, 0xa3, 0x3c, 0xd6, 0xab, 0x9a, 0x3d, 0xa9, 0x1e, 0x15, 0x3e,
 0x3a, 0x42, 0x99, 0x3f, 0x26, 0xbc, 0x96, 0x3c, 0xce, 0x3a, 0x46, 0x3e,
 0x34, 0xcf, 0x5a, 0xbf, 0x98, 0x76, 0x67, 0xbe, 0xe2, 0x9f, 0xf8, 0xbe,
 0x41, 0x47, 0xa3, 0xbb, 0xa5, 0x28, 0x60, 0xbf, 0x4e, 0xb6, 0xa1, 0xbd,
 0xa0, 0xe0, 0xf5, 0x3d, 0xe9, 0x70, 0x8c, 0x3e, 0xf0, 0xdb, 0xc3, 0xbd,
 0xfb, 0xa6, 0x7c, 0x3d, 0x69, 0xb2, 0x7d, 0x3f, 0x0e, 0x80, 0x54, 0xbe,
 0xaa, 0x72, 0x17, 0xbe, 0x25, 0x85, 0x31, 0x3f, 0x0c, 0xc8, 0x76, 0xbf,
 0x10, 0xf4, 0x29, 0x3e, 0x80, 0x3c, 0xae, 0xbd, 0x0c, 0x30, 0xb3, 0x3d,
 0xa8, 0xb1, 0xeb, 0xbd, 0x1e, 0x78, 0x8a, 0xbe, 0x78, 0x8d, 0x8a, 0x3e,
 0xd9, 0x43, 0x77, 0x3f, 0x56, 0x38, 0x3c, 0xbe, 0x14, 0x45, 0x91, 0xbe,
 0x1a, 0x79, 0x50, 0x3f, 0x6a, 0x05, 0x9a, 0x3e, 0x8e, 0xb7, 0x1e, 0xbe,
 0x14, 0x2e, 0xc7, 0x3d, 0x30, 0xb2, 0x55, 0x3e, 0x17, 0xd2, 0x8c, 0xbe,
 0xc0, 0x43, 0x9f, 0xbb, 0xae, 0x96, 0x83, 0x3e, 0xfd, 0x1b, 0x32, 0x3d,
 0x3d, 0x03, 0xf2, 0xbe, 0xee, 0xad, 0x2c, 0xbe, 0xf4, 0x75, 0x62, 0x3e,
 0x70, 0xb4, 0x4d, 0xbe, 0xa8, 0x5b, 0x29, 0xbe, 0xb0, 0x71, 0xac, 0x3e,
 0x2a, 0x97, 0x30, 0xbd, 0xf8, 0x21, 0x5d, 0x3d, 0x64, 0x13, 0xf1, 0xbd,
 0x5a, 0x0a, 0x0a, 0xbe, 0xaf, 0xdf, 0x3b, 0xbe, 0x59, 0xd9, 0x0e, 0x3e,
 0xc0, 0x90, 0x8c, 0xbe, 0xb9, 0x71, 0x32, 0x3d, 0x9c, 0xa5, 0x71, 0x3f,
 0xd7, 0x31, 0x46, 0xbe, 0x04, 0x01, 0x6c, 0xbe, 0xb0, 0xd4, 0x5a, 0xbf,
 0x80, 0x65, 0x63, 0xbc, 0xbb, 0xf8, 0x56, 0xbf, 0x28, 0x4c, 0x5c, 0x3c,
 0x2e, 0x04, 0x45, 0xbf, 0xd4, 0x79, 0xd9, 0xbd, 0xb0, 0xaa, 0x3c, 0xbe,
 0xe3, 0x25, 0x6a, 0x3e, 0x0c, 0xa4, 0xb1, 0x3d, 0xb7, 0x3e, 0x83, 0x3d,
 0xc6, 0xc1, 0x96, 0x3f, 0x8c, 0x10, 0x8b, 0x3d, 0xfc, 0x22, 0xcd, 0x3d,
 0xb8, 0xcd, 0x50, 0x3f, 0x22, 0xb1, 0x70, 0xbf, 0xf0, 0x02, 0xa9, 0x3c,
 0xb6, 0x78, 0xaa, 0x3d, 0x0f, 0x4b, 0x18, 0xbe, 0x3e, 0xb7, 0x56, 0xbd,
 0x7d, 0x62, 0x03, 0x3e, 0x70, 0x60, 0x8a, 0xbc, 0xbd, 0xdb, 0x23, 0x3f,
 0xe0, 0x42, 0xa4, 0xbd, 0xa8, 0x77, 0x5c, 0x3e, 0x29, 0x96, 0x48, 0x3f,
 0x28, 0x07, 0xd6, 0x3e, 0xc3, 0x34, 0xac, 0xbe, 0x70, 0x76, 0xd5, 0xbc,
 0xa0, 0xea, 0x44, 0xbe, 0x8e, 0x24, 0x2e, 0x3e, 0xa8, 0x2f, 0x82, 0x3e,
 0x00, 0x67, 0xa5, 0x3a, 0x28, 0x74, 0x9b, 0x3e, 0x65, 0x2c, 0xd0, 0xbe,
 0xf8, 0x4a, 0x34, 0xbd, 0x41, 0xc4, 0x0d, 0xbe, 0x10, 0xeb, 0x8e, 0x3d,
 0xd8, 0x6c, 0x45, 0xbd, 0x4b, 0xc5, 0xd4, 0x3d, 0x7e, 0x89, 0xe4, 0xbe,
 0x88, 0xed, 0x03, 0x3e, 0xa8, 0xdd, 0x41, 0xbe, 0x76, 0xd1, 0x83, 0x3c,
 0x8e, 0x99, 0xd4, 0xbd, 0x85, 0xcc, 0x61, 0x3d, 0x23, 0xaf, 0x82, 0xbe,
 0x7f, 0x2f, 0x81, 0x3e, 0xa9, 0x9b, 0x39, 0x3f, 0x38, 0xae, 0x07, 0xbd,
 0xb7, 0xfe, 0x00, 0xbe, 0x02, 0x94, 0x33, 0xbf, 0x66, 0xf0, 0x74, 0xbe,
 0xad, 0x1b, 0x4c, 0xbf, 0xb9, 0x37, 0xe0, 0xbe, 0x1c, 0x88, 0x31, 0xbf,
 0x08, 0x60, 0x66, 0x3e, 0xc8, 0xa5, 0xe5, 0x3d, 0xd9, 0x0f, 0x2f, 0x3d,
 0x22, 0x40, 0x2f, 0x3e, 0x27, 0x1b, 0x9e, 0x3e, 0xf3, 0x73, 0x9b, 0x3f,
 0xa4, 0x47, 0x7b, 0xbe, 0xa4, 0xfe, 0xda, 0xbd, 0xa6, 0xe2, 0x95, 0x3f,
 0xa4, 0x3b, 0x0a, 0xbf, 0x5c, 0x68, 0xed, 0xbd, 0xaf, 0x71, 0x42, 0xbe,
 0xe8, 0xf4, 0x85, 0x3d, 0xae, 0x6a, 0x1f, 0xbe, 0x70, 0x02, 0x95, 0xbe,
 0xc0, 0x72, 0x99, 0x3e, 0x84, 0xec, 0xa4, 0x3d, 0x0d, 0xc4, 0x1c, 0xbe,
 0xc2, 0x98, 0x4d, 0xbe, 0x34, 0x24, 0xee, 0x3d, 0x82, 0x2a, 0x21, 0xbe,
 0xf8, 0xcc, 0x13, 0xbd, 0xec, 0x49, 0x63, 0x3e, 0xca, 0x98, 0x83, 0xbd,
 0x84, 0xf1, 0xdc, 0x3d, 0xfc, 0x07, 0x6e, 0xbe, 0x58, 0x59, 0x30, 0x3d,
 0xe8, 0x2f, 0x2f, 0xbd, 0xc0, 0x48, 0x28, 0x3c, 0x00, 0xd0, 0x06, 0x39,
 0x83, 0xd5, 0x89, 0xbe, 0x38, 0xf9, 0x54, 0x3e, 0x04, 0x34, 0x6e, 0xbe,
 0xfe, 0x37, 0x09, 0xbe, 0xf8, 0xc3, 0x83, 0xbd, 0x44, 0xa1, 0x6e, 0x3e,
 0x40, 0x7e, 0x5e, 0x3e, 0x08, 0xec, 0x48, 0x3e, 0xf8, 0x27, 0x63, 0xbe,
 0xab, 0x0e, 0x23, 0xbe, 0x12, 0x8f, 0xe9, 0xbd, 0x17, 0xf7, 0x7a, 0xbe,
 0xbe, 0x30, 0x2e, 0xbe, 0x91, 0x07, 0x21, 0xbe, 0x58, 0x8c, 0x80, 0x3e,
 0xf2, 0x58, 0x1b, 0x3e, 0x28, 0xc3, 0x35, 0xbd, 0xe0, 0xa3, 0x0a, 0xbc,
 0x44, 0x52, 0x92, 0xbd, 0x0f, 0xe4, 0x95, 0xbe, 0xd0, 0x48, 0x96, 0x3e,
 0x99, 0x9f, 0x29, 0xbe, 0x80, 0x56, 0x62, 0x3c, 0x56, 0x31, 0x2f, 0x3e,
 0x57, 0x90, 0x7a, 0xbe, 0x14, 0xf8, 0x04, 0x3e, 0xa4, 0x84, 0x7e, 0x3e,
 0x48, 0xb6, 0x36, 0x3e, 0x58, 0xe6, 0x6a, 0x3e, 0x40, 0xf4, 0xb1, 0xbb,
 0x2e, 0x60, 0xeb, 0xbd, 0x5e, 0x7e, 0x6a, 0xbe, 0xf6, 0x65, 0x28, 0x3e,
 0x06, 0xc1, 0x03, 0xbe, 0x78, 0xac, 0x85, 0x3d, 0x6e, 0x0c, 0x84, 0x3e,
 0xa9, 0xf3, 0x86, 0x3f, 0xf7, 0xb7, 0x16, 0xbe, 0xd8, 0x96, 0x75, 0xbe,
 0x01, 0x00, 0x3e, 0x3f, 0x51, 0x0c, 0xbc, 0x3d, 0x3a, 0xe0, 0x88, 0xbd,
 0xe2, 0x61, 0x92, 0xbe, 0xd2, 0x7f, 0x8a, 0x3e, 0xb5, 0xb4, 0x84, 0xbe,
 0x2e, 0x8a, 0x46, 0xbe, 0x70, 0xf0, 0x8c, 0xbd, 0xe3, 0xf1, 0xb2, 0x3e,
 0xb9, 0xa4, 0xb6, 0xbe, 0x6d, 0x8e, 0xb7, 0xbd, 0x88, 0x2a, 0x77, 0x3d,
 0x74, 0x6d, 0x6e, 0xbd, 0xe8, 0xd2, 0x06, 0xbd, 0xf9, 0x59, 0x9d, 0x3d,
 0x20, 0x37, 0xf8, 0xbd, 0x00, 0x33, 0x72, 0x3c, 0x79, 0xde, 0x7f, 0xbe,
 0x25, 0x49, 0x8f, 0xbe, 0x46, 0xa4, 0x45, 0xbe, 0xf3, 0x1e, 0xa4, 0xbe,
 0x80, 0x01, 0x80, 0x3e, 0xd4, 0xe6, 0x82, 0xbd, 0x96, 0x19, 0x93, 0x3f,
 0x84, 0x89, 0x8c, 0xbd, 0x18, 0x7f, 0x0c, 0xbd, 0xa6, 0x09, 0xe8, 0xbe,
 0x47, 0xe4, 0x2b, 0xbe, 0xfc, 0x23, 0x3d, 0xbf, 0x53, 0x06, 0xad, 0xbd,
 0x40, 0xa9, 0x29, 0xbf, 0x26, 0xd5, 0xc9, 0xbd, 0xc0, 0x9a, 0x2d, 0x3e,
 0x46, 0xa4, 0x2c, 0x3e, 0xa4, 0x72, 0xdd, 0xbd, 0xd3, 0x66, 0x90, 0x3d,
 0xf0, 0xe6, 0x3d, 0x3f, 0x1c, 0x65, 0x35, 0x3e, 0x06, 0xe8, 0x44, 0x3e,
 0xdb, 0xd7, 0x98, 0x3f, 0xae, 0x68, 0x70, 0xbf, 0x10, 0xa9, 0x31, 0x3e,
 0x18, 0x0f, 0x45, 0x3e, 0xc6, 0xbf, 0x23, 0xbe, 0x5d, 0xc7, 0x46, 0xbe,
 0x8e, 0xc5, 0x8f, 0xbd, 0xe1, 0x7f, 0x90, 0xbe, 0x7b, 0x2f, 0x4a, 0xbf,
 0xac, 0x51, 0x89, 0xbe, 0x19, 0xd9, 0xa1, 0xbc, 0xe2, 0xf4, 0x3c, 0xbf,
 0x9c, 0x60, 0x52, 0x3d, 0x1e, 0x2b, 0x85, 0x3e, 0x24, 0x68, 0x6a, 0xbd,
 0x10, 0x8f, 0xe5, 0xbc, 0x26, 0xe0, 0x2a, 0x3e, 0x34, 0x84, 0x9b, 0xbe,
 0x3c, 0xb9, 0x11, 0x3e, 0x9d, 0x4b, 0x36, 0x3e, 0x00, 0x7b, 0x11, 0x3e,
 0x43, 0x01, 0x82, 0xbd, 0xfe, 0x4c, 0x97, 0x3e, 0x3d, 0x2c, 0x8b, 0xbe,
 0x98, 0x25, 0x1d, 0x3e, 0x0b, 0x75, 0x4e, 0x3e, 0x71, 0x3a, 0x07, 0x3f,
 0xd2, 0x4a, 0x81, 0xbe, 0xe8, 0x7e, 0x86, 0x3e, 0x7a, 0x5a, 0x67, 0x3e,
 0x05, 0x23, 0x20, 0xbe, 0xde, 0x02, 0xa3, 0xbd, 0x9a, 0x5f, 0x62, 0xbe,
 0xd1, 0x30, 0x9d, 0xbe, 0xa1, 0x00, 0x4d, 0xbf, 0x3a, 0x0d, 0xec, 0xbd,
 0x2c, 0x47, 0x5f, 0xbe, 0x69, 0x95, 0x36, 0x3f, 0xdc, 0xc0, 0xe9, 0x3d,
 0xd3, 0xcc, 0x72, 0x3f, 0xe1, 0x24, 0xa5, 0x3e, 0x06, 0x84, 0x1e, 0x3f,
 0xaa, 0x78, 0x51, 0xbe, 0x98, 0xf7, 0x86, 0xbe, 0xbc, 0x92, 0x3b, 0x3e,
 0x2c, 0x1f, 0x90, 0xbd, 0x8a, 0x76, 0x87, 0x3e, 0x46, 0x4a, 0x44, 0xbf,
 0xf6, 0xfd, 0x83, 0xbe, 0x96, 0xa8, 0x49, 0xbe, 0xfb, 0xbb, 0x89, 0xbf,
 0x8c, 0x63, 0x27, 0x3f, 0x48, 0x60, 0xd1, 0x3d, 0x92, 0x3c, 0xa8, 0x3b,
 0xc0, 0x8c, 0x24, 0x3d, 0x63, 0x15, 0x45, 0x3e, 0x16, 0xcd, 0x41, 0x3e,
 0xf3, 0x9b, 0x26, 0xbe, 0xce, 0x4c, 0x95, 0x3d, 0x66, 0x83, 0x41, 0x3e,
 0xfe, 0xdd, 0x6f, 0x3e, 0x94, 0x00, 0x75, 0x3d, 0x1f, 0x89, 0x15, 0xbe,
 0xfc, 0xc9, 0x2d, 0xbe, 0x30, 0x50, 0x57, 0x3d, 0x7e, 0x42, 0x02, 0x3e,
 0x91, 0x48, 0x21, 0xbe, 0xb4, 0x5d, 0x46, 0x3e, 0x06, 0x94, 0x39, 0x3e,
 0x35, 0x37, 0x27, 0xbd, 0x27, 0x0f, 0x8f, 0xbd, 0xae, 0x8e, 0xa4, 0xbd,
 0xca, 0x31, 0x91, 0x3e, 0xc8, 0x7a, 0x8a, 0xbe, 0x2c, 0x5e, 0x7f, 0xbd,
 0xbc, 0xf9, 0x52, 0xbe, 0x42, 0x7c, 0xee, 0xbd, 0x1a, 0x65, 0x4c, 0xbe,
 0x38, 0x88, 0x28, 0xbd, 0x54, 0xb9, 0x63, 0xbe, 0x56, 0x78, 0x6b, 0xbe,
 0x5a, 0x8e, 0x36, 0x3e, 0xe0, 0xef, 0x19, 0xbc, 0xb0, 0x03, 0x91, 0x3c,
 0x93, 0xfb, 0x61, 0xbe, 0x4c, 0x79, 0x46, 0xbe, 0x50, 0x33, 0x42, 0x3e,
 0x40, 0x27, 0x0a, 0x3d, 0x22, 0x70, 0x47, 0xbe, 0xfe, 0x6d, 0x1d, 0xbe,
 0xc3, 0x9f, 0xb1, 0x3d, 0x80, 0xd5, 0x07, 0xbe, 0xc6, 0x3e, 0x3a, 0xbe,
 0xd0, 0x64, 0x0d, 0xbd, 0x0c, 0x44, 0x71, 0xbd, 0x94, 0x06, 0x7f, 0xbe,
 0xa0, 0x88, 0x74, 0x3e, 0xec, 0x59, 0x49, 0x3e, 0x8a, 0xc9, 0xfb, 0xbd,
 0xd8, 0x84, 0x08, 0x3d, 0x02, 0x17, 0x06, 0x3d, 0x29, 0x49, 0x1f, 0x3d,
 0x50, 0x5e, 0xcd, 0xbd, 0xbd, 0x09, 0xbe, 0x3d, 0xec, 0xfd, 0x1b, 0x3e,
 0x34, 0x5b, 0xc7, 0xbd, 0x28, 0xf0, 0x68, 0x3e, 0x38, 0x03, 0x9a, 0x3e,
 0x9a, 0x2c, 0x53, 0xbf, 0x5e, 0xd9, 0x36, 0x3e, 0x70, 0x62, 0x98, 0x3d,
 0x10, 0xb7, 0x54, 0xbf, 0xe3, 0x2f, 0xb6, 0x3d, 0x4b, 0xa3, 0x9e, 0x3e,
 0x1c, 0x18, 0xf1, 0xbd, 0xc8, 0xb6, 0x65, 0xbe, 0x8e, 0x2a, 0x61, 0xbe,
 0x64, 0xc0, 0x8b, 0x3e, 0xe0, 0x24, 0x75, 0x3e, 0xec, 0x85, 0x0e, 0x3e,
 0xf2, 0xd2, 0xa7, 0x3e, 0x39, 0x91, 0x41, 0x3e, 0x80, 0xc3, 0xcf, 0xbd,
 0x3c, 0x18, 0x18, 0xbe, 0xae, 0x37, 0x83, 0xbe, 0x28, 0x78, 0x4e, 0xbd,
 0xca, 0x8c, 0xfc, 0x3c, 0x90, 0x06, 0x58, 0x3e, 0x42, 0x72, 0x4e, 0x3e,
 0x19, 0xd3, 0x8f, 0x3e, 0xe6, 0xf2, 0x2d, 0xbd, 0x15, 0x9e, 0xb3, 0xbd,
 0x38, 0xac, 0xa2, 0xbd, 0x78, 0xc0, 0x98, 0x3e, 0x83, 0xc7, 0x72, 0xbf,
 0xbd, 0x45, 0x2e, 0xbe, 0x48, 0x09, 0x7c, 0x3e, 0xb5, 0x06, 0x64, 0x3f,
 0xbd, 0x29, 0x1b, 0xbe, 0xd8, 0x56, 0x2f, 0x3f, 0xaa, 0x27, 0x14, 0x3f,
 0x2c, 0x4c, 0x4c, 0x3f, 0xc4, 0x59, 0x72, 0x3e, 0xc0, 0xb8, 0xb4, 0xbb,
 0xe4, 0x20, 0x75, 0x3e, 0x67, 0xa5, 0x10, 0xbe, 0x2d, 0x1b, 0x26, 0x3e,
 0x86, 0xe8, 0x5d, 0xbf, 0x42, 0xfe, 0x41, 0xbe, 0xee, 0x8a, 0xe0, 0xbd,
 0x7c, 0xc9, 0x9b, 0xbf, 0xd9, 0xd9, 0x22, 0x3f, 0x80, 0xeb, 0x88, 0x3d,
 0x96, 0xca, 0xc3, 0x3e, 0x56, 0x4f, 0x05, 0xbe, 0xb9, 0xb9, 0xc7, 0xbd,
 0xa6, 0x93, 0xf6, 0x3d, 0xea, 0x45, 0x44, 0xbe, 0xd5, 0xe4, 0x1a, 0xbf,
 0xb0, 0x6c, 0x4d, 0xbe, 0x33, 0x80, 0x32, 0x3d, 0x72, 0x92, 0x11, 0xbf,
 0x41, 0x2b, 0x52, 0xbe, 0xfd, 0x70, 0x85, 0x3e, 0x30, 0x67, 0xeb, 0xbc,
 0x84, 0x88, 0xc0, 0xbd, 0x78, 0xc7, 0xf3, 0x3d, 0xd0, 0x13, 0x4a, 0x3e,
 0xbf, 0x09, 0x8d, 0xbe, 0x1a, 0x42, 0x25, 0x3d, 0x76, 0x45, 0xd1, 0x3e,
 0xd9, 0x5f, 0x56, 0x3e, 0x34, 0xa1, 0x67, 0x3e, 0xdb, 0x41, 0xfc, 0x3d,
 0x00, 0xc8, 0xae, 0xb9, 0xf7, 0x24, 0x10, 0x3e, 0xf1, 0x04, 0xca, 0x3d,
 0x38, 0xd0, 0x28, 0x3d, 0x29, 0x24, 0x38, 0x3e, 0x27, 0xc8, 0x62, 0x3e,
 0x6d, 0xb9, 0xff, 0xbd, 0x3d, 0xa1, 0x69, 0xbd, 0x4b, 0xea, 0xc8, 0x3d,
 0x65, 0xfd, 0x91, 0xbd, 0x4d, 0x0f, 0x07, 0xbf, 0x3c, 0x33, 0x2a, 0x3e,
 0x18, 0x51, 0x24, 0x3e, 0x50, 0x78, 0x49, 0x3f, 0x60, 0x31, 0x8d, 0xbe,
 0xae, 0x73, 0x25, 0x3f, 0x99, 0x5d, 0xa7, 0x3e, 0xdc, 0x07, 0x13, 0x3f,
 0x3b, 0x27, 0x91, 0xbe, 0xdc, 0x73, 0x8f, 0x3e, 0xef, 0x9d, 0xa4, 0xbd,
 0xba, 0xe1, 0x87, 0x3e, 0x7e, 0x5b, 0x60, 0x3e, 0xd4, 0x97, 0x81, 0xbf,
 0x14, 0x84, 0x57, 0x3e, 0x2d, 0x8b, 0x91, 0xbe, 0xa9, 0x09, 0x4f, 0xbf,
 0xb3, 0x9a, 0x01, 0x3f, 0x3c, 0xdd, 0x2b, 0x3e, 0x10, 0x6d, 0xb1, 0x3d,
 0x62, 0x9d, 0x49, 0xbe, 0x5e, 0xf4, 0xb4, 0x3e, 0xab, 0x64, 0x0d, 0xbd,
 0x88, 0x72, 0x1d, 0xbd, 0xa0, 0x1c, 0x49, 0x3e, 0xdd, 0x7a, 0x81, 0xbe,
 0x40, 0x11, 0x65, 0xbc, 0xb8, 0x32, 0x3e, 0x3d, 0xb2, 0xa4, 0x0b, 0x3e,
 0x58, 0x2c, 0x80, 0x3e, 0x1e, 0x00, 0x9a, 0xbe, 0x5a, 0x81, 0x80, 0xbe,
 0x6c, 0x1d, 0xe2, 0x3d, 0x42, 0xdc, 0x98, 0xbe, 0x85, 0xc3, 0x95, 0xbe,
 0xbc, 0xd4, 0xc4, 0xbd, 0xce, 0xd1, 0x81, 0xbe, 0x16, 0x56, 0x73, 0xbe,
 0xb4, 0x55, 0x17, 0xbe, 0x5a, 0xd1, 0x94, 0x3e, 0xe0, 0x77, 0x21, 0xbc,
 0x9e, 0x75, 0xc2, 0xbd, 0x26, 0x3d, 0x38, 0x3e, 0x8c, 0x97, 0x85, 0x3e,
 0xd8, 0x17, 0xbc, 0x3d, 0x91, 0xf5, 0x25, 0xbe, 0x1c, 0xf7, 0x8c, 0x3e,
 0xbc, 0xfb, 0x4b, 0xbe, 0x2c, 0xfb, 0x3b, 0xbe, 0x20, 0x81, 0xd9, 0xbc,
 0x4d, 0x31, 0x2f, 0xbe, 0x42, 0xf1, 0x8d, 0x3e, 0xcc, 0xe0, 0x3e, 0x3e,
 0x9e, 0x9d, 0xb4, 0xbd, 0x04, 0x65, 0x32, 0x3e, 0xe8, 0x42, 0x82, 0x3d,
 0xe0, 0xd7, 0x12, 0xbd, 0x70, 0x83, 0x48, 0x3e, 0x92, 0xe9, 0x10, 0x3e,
 0x96, 0x0f, 0x82, 0xbe, 0xee, 0xf2, 0x45, 0xbe, 0x3a, 0xfb, 0xd5, 0xbd,
 0x28, 0x47, 0x7c, 0x3e, 0x8a, 0x0f, 0x5d, 0xbe, 0xe5, 0x94, 0x83, 0xbe,
 0xcf, 0x4d, 0x37, 0xbe, 0x98, 0x09, 0x36, 0xbe, 0x3c, 0x5e, 0xb0, 0x3d,
 0x6c, 0x5e, 0x8a, 0x3e, 0x2e, 0x82, 0x10, 0xbe, 0x6e, 0x43, 0x16, 0x3e,
 0x8a, 0x18, 0x62, 0xbe, 0xd8, 0x16, 0x06, 0xbd, 0x7e, 0xf9, 0xff, 0xff,
 0x04, 0x00, 0x00, 0x00, 0xb0, 0x04, 0x00, 0x00, 0xa2, 0x89, 0xa5, 0xbe,
 0x48, 0xd3, 0xa7, 0x3d, 0x8c, 0x48, 0x03, 0xbe, 0x38, 0x0b, 0x49, 0x3e,
 0x45, 0x09, 0xa1, 0xbe, 0x78, 0x1b, 0x59, 0x3e, 0x90, 0x43, 0xad, 0xbc,
 0x8d, 0xd2, 0x8e, 0x3e, 0xcc, 0x85, 0x0f, 0xbf, 0xaa, 0x57, 0x9f, 0x3d,
 0x5f, 0xce, 0x1b, 0xbc, 0xbf, 0xcf, 0x9b, 0x3e, 0x30, 0x50, 0x27, 0xbe,
 0x42, 0x25, 0x6a, 0xbe, 0x80, 0x97, 0xa2, 0xbb, 0x98, 0x41, 0x10, 0xbd,
 0x78, 0x25, 0x88, 0x3d, 0x3a, 0x07, 0x4f, 0xbe, 0x6a, 0xba, 0xce, 0xbd,
 0xfc, 0xf7, 0x2c, 0x3e, 0x87, 0x3d, 0x98, 0x3e, 0xb5, 0x71, 0x32, 0x3c,
 0x1f, 0x95, 0x87, 0xbb, 0xca, 0x2a, 0x0d, 0x3e, 0x0e, 0xd4, 0xc2, 0x3e,
 0xea, 0x76, 0x43, 0x3e, 0xc4, 0x68, 0x1c, 0xbf, 0xcc, 0xe1, 0x5d, 0xbe,
 0xc2, 0x56, 0x80, 0x3e, 0x4f, 0xae, 0x2f, 0x3e, 0x7c, 0xc7, 0xa6, 0x3e,
 0xdb, 0x04, 0xfc, 0x3d, 0x66, 0x3d, 0x69, 0xbe, 0x0e, 0xef, 0x8f, 0x3e,
 0x7f, 0xaf, 0xa2, 0x3e, 0xaf, 0x70, 0x5d, 0xbe, 0x0c, 0xab, 0x6e, 0x3d,
 0xb5, 0x89, 0x5f, 0x3d, 0xa3, 0xb6, 0xfb, 0x3e, 0x75, 0xe0, 0x07, 0x3e,
 0x69, 0xb4, 0x53, 0xbe, 0xcd, 0x21, 0x8d, 0xbd, 0x6a, 0x7a, 0xc2, 0xbd,
 0x3c, 0x80, 0x98, 0xbd, 0xfc, 0xcb, 0xc5, 0xbd, 0xec, 0x0b, 0x82, 0xbd,
 0x80, 0x48, 0x9b, 0x3b, 0x70, 0xd0, 0xea, 0x3c, 0xac, 0x4d, 0x6b, 0x3e,
 0x7f, 0x1c, 0x0a, 0xbe, 0x12, 0xd2, 0x92, 0xbe, 0xf0, 0xdc, 0x71, 0xbe,
 0x40, 0xd4, 0x50, 0x3d, 0x0c, 0x4b, 0x6c, 0x3e, 0x50, 0xda, 0x46, 0x3e,
 0xd8, 0x12, 0x34, 0x3d, 0x1c, 0xea, 0xb6, 0xbd, 0x94, 0xa4, 0x40, 0x3e,
 0x4f, 0xee, 0x25, 0xbe, 0xfa, 0xaa, 0x96, 0xbe, 0x12, 0x43, 0x7a, 0xbe,
 0xc0, 0xed, 0xbf, 0x3b, 0x30, 0x6f, 0xc5, 0xbc, 0x1c, 0xc7, 0xa9, 0x3d,
 0xe8, 0x02, 0x1b, 0x3d, 0xd8, 0xb6, 0x36, 0x3d, 0xe4, 0x0a, 0x4a, 0x3e,
 0x5c, 0xa7, 0x50, 0x3e, 0x58, 0xa7, 0x18, 0x3e, 0xea, 0x18, 0x8d, 0xbe,
 0x9d, 0xd3, 0x33, 0xbe, 0xf9, 0x32, 0x69, 0xbe, 0xa4, 0x67, 0xd9, 0x3e,
 0x0d, 0x44, 0x1d, 0x3e, 0x89, 0xcb, 0x92, 0xbe, 0x4b, 0xa5, 0xac, 0x3e,
 0x3e, 0x75, 0xad, 0x3e, 0xf3, 0xa0, 0xb7, 0x3e, 0xe9, 0xdc, 0x68, 0xbe,
 0x63, 0x26, 0x88, 0x3e, 0x59, 0x2c, 0x15, 0x3f, 0xf1, 0xd6, 0x13, 0xbe,
 0x00, 0xe9, 0x53, 0x3d, 0xde, 0xf9, 0x92, 0x3b, 0x00, 0x42, 0xd9, 0x3d,
 0x93, 0x87, 0x15, 0xbe, 0x8a, 0xeb, 0x98, 0xbe, 0xa1, 0x47, 0x5b, 0x3e,
 0xce, 0x90, 0x41, 0xbe, 0x42, 0xdf, 0x87, 0x3e, 0x10, 0x82, 0x13, 0xbd,
 0xe0, 0x6f, 0x61, 0xbe, 0xa0, 0xb4, 0x83, 0x3d, 0x1e, 0xed, 0x0d, 0x3e,
 0xa6, 0x4b, 0xa6, 0xbe, 0x0e, 0xf8, 0x2c, 0x3e, 0x13, 0x38, 0x8a, 0xbe,
 0xb6, 0x90, 0x25, 0x3e, 0x37, 0x7b, 0xb8, 0xbd, 0xe7, 0xdb, 0x50, 0xbe,
 0x19, 0x53, 0xa2, 0x3e, 0xf0, 0x7b, 0xdf, 0x3d, 0x7d, 0x06, 0x49, 0xbe,
 0x00, 0x5c, 0x37, 0x3b, 0xac, 0xca, 0x06, 0xbe, 0xe8, 0x1c, 0x60, 0xbe,
 0x14, 0x5e, 0xc0, 0xbd, 0xfa, 0xf4, 0x9d, 0x3e, 0xd5, 0xbf, 0xd4, 0x3e,
 0x04, 0x30, 0xa1, 0x3e, 0x44, 0x26, 0xc1, 0x3d, 0x70, 0xf8, 0x42, 0xbd,
 0xd9, 0x82, 0xaf, 0x3e, 0xbf, 0x4c, 0xdf, 0x3e, 0xde, 0x38, 0x72, 0xbc,
 0x29, 0x3b, 0x34, 0x3e, 0x54, 0x9c, 0x7a, 0x3e, 0xf6, 0x93, 0x2b, 0xbd,
 0x21, 0x69, 0xbd, 0xbe, 0xdc, 0xe8, 0x56, 0x3e, 0xc1, 0x60, 0x0b, 0xbe,
 0xc8, 0xa0, 0x7e, 0xbd, 0x60, 0x79, 0xb9, 0xbc, 0x1a, 0x86, 0x9e, 0x3e,
 0x12, 0x26, 0x12, 0xbe, 0xb2, 0x38, 0xd1, 0xbd, 0x4f, 0x5c, 0x8b, 0xbe,
 0xcf, 0x26, 0x5c, 0x3e, 0x69, 0x87, 0x93, 0xbe, 0xb6, 0xf4, 0x02, 0x3d,
 0x02, 0xe7, 0x23, 0x3e, 0xf9, 0x79, 0x2e, 0x3e, 0x33, 0xb0, 0x08, 0xbe,
 0x0c, 0xe9, 0x6f, 0x3e, 0xbd, 0x67, 0xf5, 0x3e, 0x5d, 0x97, 0x34, 0x3e,
 0x0f, 0xc7, 0x63, 0x3e, 0xec, 0xba, 0x6a, 0xbe, 0xfd, 0xac, 0x09, 0x3e,
 0x7b, 0x73, 0x04, 0x3d, 0x75, 0xa8, 0x92, 0xbd, 0x0a, 0x13, 0xe2, 0xbd,
 0x5a, 0xb4, 0x4d, 0x3e, 0x21, 0xbc, 0x51, 0xbe, 0x13, 0x92, 0x6b, 0xbe,
 0x16, 0xb8, 0xf7, 0xbd, 0xf2, 0x41, 0x83, 0xbd, 0x08, 0x91, 0x8e, 0x3e,
 0xe2, 0x58, 0x51, 0xbd, 0x2d, 0xc9, 0x57, 0x3e, 0xd5, 0x5d, 0xba, 0x3d,
 0x03, 0xa9, 0xce, 0x3d, 0x97, 0x62, 0x93, 0xbe, 0x65, 0xb5, 0x83, 0xbd,
 0xfc, 0x19, 0xa5, 0xbd, 0x5d, 0x2b, 0x39, 0x3e, 0xeb, 0xaa, 0xfb, 0xbd,
 0xa4, 0xd7, 0x4f, 0x3d, 0x6b, 0x28, 0x5d, 0xbe, 0x5e, 0xf5, 0x72, 0x3e,
 0xc4, 0x75, 0x34, 0xbe, 0xca, 0x25, 0x4f, 0x3e, 0xcb, 0xcc, 0xe1, 0x3e,
 0xac, 0xbc, 0x63, 0x3d, 0x1b, 0x49, 0xfe, 0xbe, 0x5b, 0xa3, 0x84, 0x3d,
 0x43, 0x96, 0x13, 0x3e, 0x13, 0x71, 0x3a, 0xbe, 0x61, 0x48, 0x56, 0xbd,
 0x76, 0x06, 0x0b, 0x3e, 0xb7, 0xa5, 0xf5, 0x3d, 0xf2, 0xbd, 0x63, 0x3d,
 0x74, 0xb6, 0x0f, 0xbe, 0x35, 0x02, 0xee, 0xbd, 0xec, 0x30, 0x76, 0xbe,
 0x30, 0x32, 0xa2, 0x3e, 0x38, 0x64, 0x52, 0xbe, 0x14, 0xc7, 0x9e, 0xbe,
 0x24, 0x45, 0x1b, 0xbe, 0xbc, 0xc5, 0x8c, 0xbe, 0x18, 0x93, 0xda, 0xbe,
 0x2c, 0x8a, 0x59, 0x3e, 0xca, 0xde, 0x04, 0x3f, 0x6a, 0xcd, 0x84, 0x3e,
 0xa1, 0xb3, 0xb7, 0xbc, 0x49, 0xc2, 0x82, 0xbe, 0x24, 0x18, 0x9a, 0xbe,
 0x7e, 0xe8, 0x9e, 0x3e, 0x3e, 0x96, 0x7f, 0xbe, 0x1c, 0x4a, 0xcc, 0x3d,
 0xe0, 0xc2, 0x93, 0xbc, 0xc8, 0x52, 0x5e, 0xbd, 0x82, 0x37, 0x44, 0xbe,
 0xb3, 0xec, 0x93, 0x3d, 0x2a, 0x73, 0x07, 0x3f, 0xe7, 0x93, 0x31, 0x3e,
 0x04, 0x11, 0x0f, 0xbe, 0x1e, 0xb3, 0x81, 0xbe, 0x89, 0xde, 0x2b, 0xbe,
 0xc3, 0x1e, 0x5e, 0x3e, 0x19, 0x76, 0x22, 0x3f, 0x1f, 0x23, 0xc6, 0xbd,
 0x67, 0xdb, 0xe6, 0x3d, 0xb7, 0x93, 0x0b, 0x3e, 0xd5, 0x7f, 0x48, 0xbe,
 0x32, 0x93, 0xa2, 0x3e, 0x09, 0xa4, 0x2e, 0x3f, 0xb3, 0x8e, 0xe6, 0xbd,
 0xbc, 0xbc, 0x54, 0xbe, 0x8c, 0x88, 0x67, 0xbe, 0x54, 0x18, 0xc5, 0x3d,
 0x52, 0xd6, 0x9b, 0xbe, 0x00, 0x93, 0xe6, 0xbc, 0x00, 0x01, 0xf3, 0xbd,
 0x50, 0x38, 0x6f, 0x3d, 0xf0, 0x55, 0x7f, 0xbd, 0xcc, 0x79, 0x4c, 0x3e,
 0xfe, 0xef, 0x5a, 0xbe, 0x79, 0x82, 0x9e, 0xbe, 0x48, 0xeb, 0x29, 0xbd,
 0x27, 0x79, 0x64, 0xbe, 0xdc, 0x16, 0x07, 0x3e, 0xfb, 0x24, 0xda, 0x3d,
 0x2c, 0x04, 0xa8, 0xbc, 0x48, 0x5c, 0xe4, 0xbd, 0xca, 0xcc, 0xf7, 0x3d,
 0xbc, 0x63, 0xb6, 0x3e, 0xba, 0x36, 0x47, 0x3e, 0xbc, 0xa0, 0xf3, 0xbd,
 0xbb, 0x77, 0x9e, 0xbe, 0xe0, 0x35, 0x4a, 0x3e, 0x38, 0x6a, 0x75, 0xbd,
 0x10, 0xeb, 0x96, 0xbc, 0x3e, 0xe8, 0xa4, 0xbd, 0xb3, 0xd0, 0x24, 0xbd,
 0x96, 0xda, 0xf9, 0x3e, 0xbc, 0x8f, 0x70, 0x3e, 0xad, 0x5d, 0xa6, 0x3e,
 0x23, 0xfa, 0x04, 0x3f, 0x84, 0xaa, 0xec, 0x3e, 0x37, 0xc3, 0xba, 0x3e,
 0xcc, 0x88, 0x13, 0xbe, 0x3c, 0x47, 0x08, 0xbf, 0xe4, 0xae, 0x67, 0x3c,
 0x8b, 0x88, 0xa6, 0x3e, 0xcf, 0x8c, 0x98, 0xbc, 0x66, 0x56, 0x86, 0xbe,
 0xb2, 0x13, 0x23, 0xbe, 0xb0, 0xf3, 0xdc, 0x3c, 0xa0, 0x00, 0x8e, 0xbd,
 0xe8, 0x3c, 0x39, 0x3d, 0x54, 0xee, 0x2f, 0x3e, 0x03, 0x23, 0x8c, 0xbe,
 0x4a, 0x82, 0x44, 0xbe, 0x12, 0x05, 0xa4, 0x3e, 0xc1, 0x40, 0xa2, 0xbe,
 0x6c, 0x18, 0x06, 0xbe, 0x77, 0x87, 0x02, 0xbe, 0x70, 0x88, 0x62, 0x3e,
 0x64, 0x81, 0xd5, 0xbc, 0x26, 0x47, 0x30, 0xbf, 0xb5, 0x18, 0x60, 0xbc,
 0x1c, 0x2d, 0xb3, 0x3e, 0xa6, 0xaf, 0x74, 0x3e, 0xfa, 0x61, 0x3c, 0xbd,
 0x17, 0x86, 0x45, 0xbe, 0xec, 0x7d, 0xee, 0x3e, 0x00, 0xa1, 0x1d, 0xbd,
 0x7c, 0xcc, 0xa0, 0x3d, 0x02, 0x5f, 0x01, 0xbe, 0x2e, 0x26, 0x8a, 0xbe,
 0x10, 0xe3, 0x93, 0xbe, 0x90, 0xb6, 0x87, 0x3e, 0x18, 0xa5, 0x6b, 0x3e,
 0x10, 0x63, 0x02, 0xbd, 0x28, 0xf2, 0x02, 0xbe, 0xcd, 0x83, 0x66, 0x3e,
 0xc2, 0xd4, 0x9c, 0x3e, 0xd6, 0xe4, 0xe7, 0x3e, 0x12, 0x02, 0x54, 0xbe,
 0xe0, 0xe3, 0x0a, 0x3e, 0x60, 0x07, 0xb9, 0x3e, 0x98, 0x68, 0x4f, 0xbd,
 0x20, 0xcf, 0x4f, 0x3e, 0x70, 0x97, 0xd5, 0xbc, 0xa8, 0x8e, 0x76, 0xbe,
 0x10, 0x09, 0xaa, 0xbc, 0x56, 0x0b, 0xcb, 0xbd, 0xcb, 0x54, 0xa6, 0xbd,
 0x53, 0xf2, 0x3b, 0xbe, 0x5d, 0xd1, 0x34, 0x3e, 0x45, 0xfc, 0x1d, 0x3e,
 0xdf, 0x82, 0x11, 0x3d, 0x59, 0xdd, 0x23, 0x3e, 0x4e, 0x56, 0xe6, 0xbd,
 0x01, 0x17, 0x2c, 0x3e, 0x3c, 0xd6, 0x76, 0xbe, 0xa4, 0x08, 0x24, 0xbe,
 0x79, 0xa1, 0x7f, 0x3e, 0x5e, 0xb2, 0xca, 0x3d, 0x3a, 0xfe, 0xff, 0xff,
 0x04, 0x00, 0x00, 0x00, 0x3c, 0x00, 0x00, 0x00, 0x1e, 0x93, 0x24, 0x3d,
 0x00, 0x00, 0x00, 0x00, 0xd5, 0xdd, 0xb2, 0xba, 0xca, 0x4b, 0x43, 0x3d,
 0x00, 0x00, 0x00, 0x00, 0x49, 0x60, 0xa9, 0x3d, 0x34, 0xb0, 0x8d, 0x3d,
 0xee, 0xc1, 0x8b, 0x3d, 0x00, 0x00, 0x00, 0x00, 0x9c, 0x16, 0x7c, 0x3d,
 0x1a, 0x8c, 0x30, 0x3d, 0xfd, 0xc3, 0xa8, 0xbc, 0x80, 0xf2, 0x4b, 0x3d,
 0x6f, 0xe5, 0x57, 0x3d, 0x00, 0x00, 0x00, 0x00, 0x82, 0xfe, 0xff, 0xff,
 0x04, 0x00, 0x00, 0x00, 0x08, 0x00, 0x00, 0x00, 0xae, 0x37, 0x34, 0x3d,
 0x46, 0x33, 0x34, 0xbd, 0x96, 0xfe, 0xff, 0xff, 0x04, 0x00, 0x00, 0x00,
 0xc8, 0x00, 0x00, 0x00, 0x00, 0x00, 0x00, 0x00, 0x99, 0x84, 0x08, 0x3d,
 0x00, 0x00, 0x00, 0x00, 0x4b, 0x35, 0xbf, 0xbd, 0x37, 0x2f, 0x21, 0x3d,
 0x82, 0xa8, 0x9f, 0x3d, 0xfd, 0x89, 0xbb, 0xbd, 0x00, 0x00, 0x00, 0x00,
 0x00, 0x00, 0x00, 0x00, 0x00, 0x00, 0x00, 0x00, 0x00, 0x00, 0x00, 0x00,
 0x00, 0x00, 0x00, 0x00, 0xb9, 0x34, 0xdf, 0x3d, 0x97, 0x88, 0x57, 0xbd,
 0xa1, 0xdf, 0x77, 0xbc, 0x00, 0x00, 0x00, 0x00, 0xe1, 0x3d, 0x4f, 0xbb,
 0x00, 0x00, 0x00, 0x00, 0xf7, 0x7c, 0xfe, 0x3d, 0x53, 0x4e, 0x62, 0xbd,
 0x00, 0x00, 0x00, 0x00, 0x26, 0x55, 0x7a, 0xbc, 0x34, 0x49, 0x07, 0xbd,
 0x17, 0x08, 0x3e, 0xbc, 0x5f, 0x39, 0x80, 0xbb, 0x82, 0xee, 0xd3, 0xbb,
 0x04, 0x20, 0xef, 0xbb, 0xe1, 0x13, 0x42, 0x3d, 0x17, 0x9a, 0x97, 0xbc,
 0x00, 0x00, 0x00, 0x00, 0xc4, 0x5b, 0xe8, 0xbc, 0x00, 0x00, 0x00, 0x00,
 0x9e, 0x36, 0x99, 0xbc, 0x1f, 0x7c, 0x1c, 0x3d, 0x7f, 0x09, 0x09, 0xbd,
 0x00, 0x00, 0x00, 0x00, 0x00, 0x00, 0x00, 0x00, 0x4f, 0x0b, 0x8f, 0x3d,
 0x00, 0x00, 0x00, 0x00, 0x38, 0x03, 0x6b, 0x3e, 0x46, 0x7e, 0x7c, 0x3d,
 0x00, 0x00, 0x00, 0x00, 0x00, 0x00, 0x00, 0x00, 0xb1, 0x23, 0x35, 0x3d,
 0xfc, 0x42, 0xb5, 0xbc, 0x00, 0x00, 0x00, 0x00, 0x52, 0x79, 0x2c, 0x3d,
 0x00, 0x00, 0x00, 0x00, 0xa8, 0x79, 0x03, 0xbd, 0xa0, 0x6f, 0x80, 0xbc,
 0x94, 0xfa, 0xff, 0xff, 0x98, 0xfa, 0xff, 0xff, 0x0f, 0x00, 0x00, 0x00,
 0x4d, 0x4c, 0x49, 0x52, 0x20, 0x43, 0x6f, 0x6e, 0x76, 0x65, 0x72, 0x74,
 0x65, 0x64, 0x2e, 0x00, 0x01, 0x00, 0x00, 0x00, 0x14, 0x00, 0x00, 0x00,
 0x00, 0x00, 0x0e, 0x00, 0x18, 0x00, 0x14, 0x00, 0x10, 0x00, 0x0c, 0x00,
 0x08, 0x00, 0x04, 0x00, 0x0e, 0x00, 0x00, 0x00, 0x14, 0x00, 0x00, 0x00,
 0x1c, 0x00, 0x00, 0x00, 0x24, 0x01, 0x00, 0x00, 0x28, 0x01, 0x00, 0x00,
 0x2c, 0x01, 0x00, 0x00, 0x04, 0x00, 0x00, 0x00, 0x6d, 0x61, 0x69, 0x6e,
 0x00, 0x00, 0x00, 0x00, 0x04, 0x00, 0x00, 0x00, 0xcc, 0x00, 0x00, 0x00,
 0x84, 0x00, 0x00, 0x00, 0x50, 0x00, 0x00, 0x00, 0x14, 0x00, 0x00, 0x00,
 0x00, 0x00, 0x0e, 0x00, 0x1a, 0x00, 0x14, 0x00, 0x10, 0x00, 0x0c, 0x00,
 0x0b, 0x00, 0x04, 0x00, 0x0e, 0x00, 0x00, 0x00, 0x1c, 0x00, 0x00, 0x00,
 0x00, 0x00, 0x00, 0x09, 0x1c, 0x00, 0x00, 0x00, 0x20, 0x00, 0x00, 0x00,
 0x01, 0x00, 0x00, 0x00, 0x00, 0x00, 0x06, 0x00, 0x08, 0x00, 0x04, 0x00,
 0x06, 0x00, 0x00, 0x00, 0x00, 0x00, 0x80, 0x3f, 0x01, 0x00, 0x00, 0x00,
 0x0a, 0x00, 0x00, 0x00, 0x01, 0x00, 0x00, 0x00, 0x09, 0x00, 0x00, 0x00,
 0x9a, 0xff, 0xff, 0xff, 0x10, 0x00, 0x00, 0x00, 0x00, 0x00, 0x00, 0x08,
 0x0c, 0x00, 0x00, 0x00, 0x10, 0x00, 0x00, 0x00, 0x5c, 0xfb, 0xff, 0xff,
 0x01, 0x00, 0x00, 0x00, 0x09, 0x00, 0x00, 0x00, 0x03, 0x00, 0x00, 0x00,
 0x08, 0x00, 0x00, 0x00, 0x06, 0x00, 0x00, 0x00, 0x02, 0x00, 0x00, 0x00,
 0xca, 0xff, 0xff, 0xff, 0x10, 0x00, 0x00, 0x00, 0x00, 0x00, 0x00, 0x08,
 0x10, 0x00, 0x00, 0x00, 0x14, 0x00, 0x00, 0x00, 0xba, 0xff, 0xff, 0xff,
 0x00, 0x00, 0x00, 0x01, 0x01, 0x00, 0x00, 0x00, 0x08, 0x00, 0x00, 0x00,
 0x03, 0x00, 0x00, 0x00, 0x07, 0x00, 0x00, 0x00, 0x05, 0x00, 0x00, 0x00,
 0x03, 0x00, 0x00, 0x00, 0x00, 0x00, 0x0e, 0x00, 0x16, 0x00, 0x00, 0x00,
 0x10, 0x00, 0x0c, 0x00, 0x0b, 0x00, 0x04, 0x00, 0x0e, 0x00, 0x00, 0x00,
 0x18, 0x00, 0x00, 0x00, 0x00, 0x00, 0x00, 0x08, 0x18, 0x00, 0x00, 0x00,
 0x1c, 0x00, 0x00, 0x00, 0x00, 0x00, 0x06, 0x00, 0x08, 0x00, 0x07, 0x00,
 0x06, 0x00, 0x00, 0x00, 0x00, 0x00, 0x00, 0x01, 0x01, 0x00, 0x00, 0x00,
 0x07, 0x00, 0x00, 0x00, 0x03, 0x00, 0x00, 0x00, 0x00, 0x00, 0x00, 0x00,
 0x04, 0x00, 0x00, 0x00, 0x01, 0x00, 0x00, 0x00, 0x01, 0x00, 0x00, 0x00,
 0x0a, 0x00, 0x00, 0x00, 0x01, 0x00, 0x00, 0x00, 0x00, 0x00, 0x00, 0x00,
 0x0b, 0x00, 0x00, 0x00, 0xd0, 0x03, 0x00, 0x00, 0x6c, 0x03, 0x00, 0x00,
 0x08, 0x03, 0x00, 0x00, 0xb4, 0x02, 0x00, 0x00, 0x70, 0x02, 0x00, 0x00,
 0x28, 0x02, 0x00, 0x00, 0xe0, 0x01, 0x00, 0x00, 0x5c, 0x01, 0x00, 0x00,
 0xd0, 0x00, 0x00, 0x00, 0x5c, 0x00, 0x00, 0x00, 0x04, 0x00, 0x00, 0x00,
 0x70, 0xfc, 0xff, 0xff, 0x14, 0x00, 0x00, 0x00, 0x1c, 0x00, 0x00, 0x00,
 0x1c, 0x00, 0x00, 0x00, 0x0b, 0x00, 0x00, 0x00, 0x34, 0x00, 0x00, 0x00,
 0x02, 0x00, 0x00, 0x00, 0xff, 0xff, 0xff, 0xff, 0x02, 0x00, 0x00, 0x00,
 0x5c, 0xfc, 0xff, 0xff, 0x19, 0x00, 0x00, 0x00, 0x53, 0x74, 0x61, 0x74,
 0x65, 0x66, 0x75, 0x6c, 0x50, 0x61, 0x72, 0x74, 0x69, 0x74, 0x69, 0x6f,
 0x6e, 0x65, 0x64, 0x43, 0x61, 0x6c, 0x6c, 0x3a, 0x30, 0x00, 0x00, 0x00,
 0x02, 0x00, 0x00, 0x00, 0x01, 0x00, 0x00, 0x00, 0x02, 0x00, 0x00, 0x00,
 0xc4, 0xfc, 0xff, 0xff, 0x14, 0x00, 0x00, 0x00, 0x1c, 0x00, 0x00, 0x00,
 0x1c, 0x00, 0x00, 0x00, 0x0a, 0x00, 0x00, 0x00, 0x50, 0x00, 0x00, 0x00,
 0x02, 0x00, 0x00, 0x00, 0xff, 0xff, 0xff, 0xff, 0x02, 0x00, 0x00, 0x00,
 0xb0, 0xfc, 0xff, 0xff, 0x34, 0x00, 0x00, 0x00, 0x73, 0x65, 0x71, 0x75,
 0x65, 0x6e, 0x74, 0x69, 0x61, 0x6c, 0x2f, 0x64, 0x65, 0x6e, 0x73, 0x65,
 0x5f, 0x32, 0x2f, 0x4d, 0x61, 0x74, 0x4d, 0x75, 0x6c, 0x3b, 0x73, 0x65,
 0x71, 0x75, 0x65, 0x6e, 0x74, 0x69, 0x61, 0x6c, 0x2f, 0x64, 0x65, 0x6e,
 0x73, 0x65, 0x5f, 0x32, 0x2f, 0x42, 0x69, 0x61, 0x73, 0x41, 0x64, 0x64,
 0x00, 0x00, 0x00, 0x00, 0x02, 0x00, 0x00, 0x00, 0x01, 0x00, 0x00, 0x00,
 0x02, 0x00, 0x00, 0x00, 0x34, 0xfd, 0xff, 0xff, 0x14, 0x00, 0x00, 0x00,
 0x1c, 0x00, 0x00, 0x00, 0x1c, 0x00, 0x00, 0x00, 0x09, 0x00, 0x00, 0x00,
 0x68, 0x00, 0x00, 0x00, 0x02, 0x00, 0x00, 0x00, 0xff, 0xff, 0xff, 0xff,
 0x0f, 0x00, 0x00, 0x00, 0x20, 0xfd, 0xff, 0xff, 0x4c, 0x00, 0x00, 0x00,
 0x73, 0x65, 0x71, 0x75, 0x65, 0x6e, 0x74, 0x69, 0x61, 0x6c, 0x2f, 0x64,
 0x65, 0x6e, 0x73, 0x65, 0x5f, 0x31, 0x2f, 0x4d, 0x61, 0x74, 0x4d, 0x75,
 0x6c, 0x3b, 0x73, 0x65, 0x71, 0x75, 0x65, 0x6e, 0x74, 0x69, 0x61, 0x6c,
 0x2f, 0x64, 0x65, 0x6e, 0x73, 0x65, 0x5f, 0x31, 0x2f, 0x52, 0x65, 0x6c,
 0x75, 0x3b, 0x73, 0x65, 0x71, 0x75, 0x65, 0x6e, 0x74, 0x69, 0x61, 0x6c,
 0x2f, 0x64, 0x65, 0x6e, 0x73, 0x65, 0x5f, 0x31, 0x2f, 0x42, 0x69, 0x61,
 0x73, 0x41, 0x64, 0x64, 0x00, 0x00, 0x00, 0x00, 0x02, 0x00, 0x00, 0x00,
 0x01, 0x00, 0x00, 0x00, 0x0f, 0x00, 0x00, 0x00, 0xbc, 0xfd, 0xff, 0xff,
 0x14, 0x00, 0x00, 0x00, 0x1c, 0x00, 0x00, 0x00, 0x1c, 0x00, 0x00, 0x00,
 0x08, 0x00, 0x00, 0x00, 0x60, 0x00, 0x00, 0x00, 0x02, 0x00, 0x00, 0x00,
 0xff, 0xff, 0xff, 0xff, 0x32, 0x00, 0x00, 0x00, 0xa8, 0xfd, 0xff, 0xff,
 0x46, 0x00, 0x00, 0x00, 0x73, 0x65, 0x71, 0x75, 0x65, 0x6e, 0x74, 0x69,
 0x61, 0x6c, 0x2f, 0x64, 0x65, 0x6e, 0x73, 0x65, 0x2f, 0x4d, 0x61, 0x74,
 0x4d, 0x75, 0x6c, 0x3b, 0x73, 0x65, 0x71, 0x75, 0x65, 0x6e, 0x74, 0x69,
 0x61, 0x6c, 0x2f, 0x64, 0x65, 0x6e, 0x73, 0x65, 0x2f, 0x52, 0x65, 0x6c,
 0x75, 0x3b, 0x73, 0x65, 0x71, 0x75, 0x65, 0x6e, 0x74, 0x69, 0x61, 0x6c,
 0x2f, 0x64, 0x65, 0x6e, 0x73, 0x65, 0x2f, 0x42, 0x69, 0x61, 0x73, 0x41,
 0x64, 0x64, 0x00, 0x00, 0x02, 0x00, 0x00, 0x00, 0x01, 0x00, 0x00, 0x00,
 0x32, 0x00, 0x00, 0x00, 0x96, 0xfe, 0xff, 0xff, 0x10, 0x00, 0x00, 0x00,
 0x10, 0x00, 0x00, 0x00, 0x07, 0x00, 0x00, 0x00, 0x28, 0x00, 0x00, 0x00,
 0x18, 0xfe, 0xff, 0xff, 0x19, 0x00, 0x00, 0x00, 0x73, 0x65, 0x71, 0x75,
 0x65, 0x6e, 0x74, 0x69, 0x61, 0x6c, 0x2f, 0x64, 0x65, 0x6e, 0x73, 0x65,
 0x5f, 0x32, 0x2f, 0x4d, 0x61, 0x74, 0x4d, 0x75, 0x6c, 0x00, 0x00, 0x00,
 0x02, 0x00, 0x00, 0x00, 0x02, 0x00, 0x00, 0x00, 0x0f, 0x00, 0x00, 0x00,
 0xda, 0xfe, 0xff, 0xff, 0x10, 0x00, 0x00, 0x00, 0x10, 0x00, 0x00, 0x00,
 0x06, 0x00, 0x00, 0x00, 0x28, 0x00, 0x00, 0x00, 0x5c, 0xfe, 0xff, 0xff,
 0x19, 0x00, 0x00, 0x00, 0x73, 0x65, 0x71, 0x75, 0x65, 0x6e, 0x74, 0x69,
 0x61, 0x6c, 0x2f, 0x64, 0x65, 0x6e, 0x73, 0x65, 0x5f, 0x31, 0x2f, 0x4d,
 0x61, 0x74, 0x4d, 0x75, 0x6c, 0x00, 0x00, 0x00, 0x02, 0x00, 0x00, 0x00,
 0x0f, 0x00, 0x00, 0x00, 0x32, 0x00, 0x00, 0x00, 0x1e, 0xff, 0xff, 0xff,
 0x10, 0x00, 0x00, 0x00, 0x10, 0x00, 0x00, 0x00, 0x05, 0x00, 0x00, 0x00,
 0x24, 0x00, 0x00, 0x00, 0xa0, 0xfe, 0xff, 0xff, 0x17, 0x00, 0x00, 0x00,
 0x73, 0x65, 0x71, 0x75, 0x65, 0x6e, 0x74, 0x69, 0x61, 0x6c, 0x2f, 0x64,
 0x65, 0x6e, 0x73, 0x65, 0x2f, 0x4d, 0x61, 0x74, 0x4d, 0x75, 0x6c, 0x00,
 0x02, 0x00, 0x00, 0x00, 0x32, 0x00, 0x00, 0x00, 0x06, 0x00, 0x00, 0x00,
 0x5e, 0xff, 0xff, 0xff, 0x10, 0x00, 0x00, 0x00, 0x10, 0x00, 0x00, 0x00,
 0x04, 0x00, 0x00, 0x00, 0x38, 0x00, 0x00, 0x00, 0xe0, 0xfe, 0xff, 0xff,
 0x29, 0x00, 0x00, 0x00, 0x73, 0x65, 0x71, 0x75, 0x65, 0x6e, 0x74, 0x69,
 0x61, 0x6c, 0x2f, 0x64, 0x65, 0x6e, 0x73, 0x65, 0x5f, 0x31, 0x2f, 0x42,
 0x69, 0x61, 0x73, 0x41, 0x64, 0x64, 0x2f, 0x52, 0x65, 0x61, 0x64, 0x56,
 0x61, 0x72, 0x69, 0x61, 0x62, 0x6c, 0x65, 0x4f, 0x70, 0x00, 0x00, 0x00,
 0x01, 0x00, 0x00, 0x00, 0x0f, 0x00, 0x00, 0x00, 0xae, 0xff, 0xff, 0xff,
 0x10, 0x00, 0x00, 0x00, 0x10, 0x00, 0x00, 0x00, 0x03, 0x00, 0x00, 0x00,
 0x38, 0x00, 0x00, 0x00, 0x30, 0xff, 0xff, 0xff, 0x29, 0x00, 0x00, 0x00,
 0x73, 0x65, 0x71, 0x75, 0x65, 0x6e, 0x74, 0x69, 0x61, 0x6c, 0x2f, 0x64,
 0x65, 0x6e, 0x73, 0x65, 0x5f, 0x32, 0x2f, 0x42, 0x69, 0x61, 0x73, 0x41,
 0x64, 0x64, 0x2f, 0x52, 0x65, 0x61, 0x64, 0x56, 0x61, 0x72, 0x69, 0x61,
 0x62, 0x6c, 0x65, 0x4f, 0x70, 0x00, 0x00, 0x00, 0x01, 0x00, 0x00, 0x00,
 0x02, 0x00, 0x00, 0x00, 0x00, 0x00, 0x0e, 0x00, 0x14, 0x00, 0x10, 0x00,
 0x00, 0x00, 0x0c, 0x00, 0x08, 0x00, 0x04, 0x00, 0x0e, 0x00, 0x00, 0x00,
 0x10, 0x00, 0x00, 0x00, 0x10, 0x00, 0x00, 0x00, 0x02, 0x00, 0x00, 0x00,
 0x34, 0x00, 0x00, 0x00, 0x90, 0xff, 0xff, 0xff, 0x27, 0x00, 0x00, 0x00,
 0x73, 0x65, 0x71, 0x75, 0x65, 0x6e, 0x74, 0x69, 0x61, 0x6c, 0x2f, 0x64,
 0x65, 0x6e, 0x73, 0x65, 0x2f, 0x42, 0x69, 0x61, 0x73, 0x41, 0x64, 0x64,
 0x2f, 0x52, 0x65, 0x61, 0x64, 0x56, 0x61, 0x72, 0x69, 0x61, 0x62, 0x6c,
 0x65, 0x4f, 0x70, 0x00, 0x01, 0x00, 0x00, 0x00, 0x32, 0x00, 0x00, 0x00,
 0x14, 0x00, 0x18, 0x00, 0x14, 0x00, 0x00, 0x00, 0x10, 0x00, 0x0c, 0x00,
 0x08, 0x00, 0x00, 0x00, 0x00, 0x00, 0x04, 0x00, 0x14, 0x00, 0x00, 0x00,
 0x14, 0x00, 0x00, 0x00, 0x20, 0x00, 0x00, 0x00, 0x20, 0x00, 0x00, 0x00,
 0x01, 0x00, 0x00, 0x00, 0x3c, 0x00, 0x00, 0x00, 0x02, 0x00, 0x00, 0x00,
 0xff, 0xff, 0xff, 0xff, 0x06, 0x00, 0x00, 0x00, 0x04, 0x00, 0x04, 0x00,
 0x04, 0x00, 0x00, 0x00, 0x1d, 0x00, 0x00, 0x00, 0x73, 0x65, 0x72, 0x76,
 0x69, 0x6e, 0x67, 0x5f, 0x64, 0x65, 0x66, 0x61, 0x75, 0x6c, 0x74, 0x5f,
 0x64, 0x65, 0x6e, 0x73, 0x65, 0x5f, 0x69, 0x6e, 0x70, 0x75, 0x74, 0x3a,
 0x30, 0x00, 0x00, 0x00, 0x02, 0x00, 0x00, 0x00, 0x01, 0x00, 0x00, 0x00,
 0x06, 0x00, 0x00, 0x00, 0x02, 0x00, 0x00, 0x00, 0x20, 0x00, 0x00, 0x00,
 0x04, 0x00, 0x00, 0x00, 0xf4, 0xff, 0xff, 0xff, 0x19, 0x00, 0x00, 0x00,
 0x00, 0x00, 0x00, 0x19, 0x0c, 0x00, 0x0c, 0x00, 0x0b, 0x00, 0x00, 0x00,
 0x00, 0x00, 0x04, 0x00, 0x0c, 0x00, 0x00, 0x00, 0x09, 0x00, 0x00, 0x00,
 0x00, 0x00, 0x00, 0x09
};